231ed7d8
f9051a15
17d10900
fceb0a0c
011309f0
0f14f6fd
0be50607
03f7fe05
01f4f0e2
f9f70710
16d6f9fa
fad60d21
09e014ff
0c27f6ec
0ae5fc06
e1c22a2a
2a0de8d2
01e80711
03e903f6
0ade130e
0f020801
0ecc0009
2318e8e3
351be0df
12fdefe9
1dedf0f7
15cc0912
10eef602
2307ece8
1f0ef6da
111af4fc
03f71214
1014eeed
05eb080e
17f30507
21d5faf6
0e01faed
1cd3fe08
ecf00d0f
0cf3f0fe
14e7fd00
02d42723
0a0204f7
19ed031d
1401f4f5
051af8e5
1afcfff5
08f4fb06
02ef0217
1cecfe09
19f2f300
09eefe05
11c10d1f
17ddf4f2
edd01827
1716dbd8
07e505ff
090c0409
15030305
fb21f5e2
120a00fb
1c16edec
16de1102
05e41505
020a08ff
192cf3f7
0cf7f9f8
1a1beaea
0d07f1eb
df1c1b1f
14f90506
eae6111c
1b23e9d7
0c0908f9
143cf2e7
04fc0c0c
0aefff12
05f808ee
041bedf1
1b04f0f8
0e0afe05
1d01f5f2
24f6d9e0
1917f0ef
16e8edec
20fcf6e6
2a06f2e2
ffb92b35
25e3e9f8
10faf9fc
33f2e1d6
1f07dae4
07fcfffb
15f8f9fd
1de9ebe8
290aecde
01d8091c
120efcf7
1fe6f109
17f1fbf3
0e0af5ff
1a0df5dd
11faf8fb
18dbf5f2
20f2f7ee
f0d12923
20fbf5ff
f71e1414
0d0c0807
0bd7fd0f
09e60f24
190bede0
0ce50a08
0ed61007
060df9fe
0bfd0204
f7060c01
171506fe
0e26f7f3
200be2f1
00f2130b
20f1f6f8
f9fe081c
05f4eff4
04f0021c
0af40202
fd100b0b
f2df1823
1305fcf2
0b020a0a
1bed00fa
1cf4edf9
1213f2e1
21fdf8e4
2202e6e8
02060b08
26dde5f9
1bf1ecf2
19cdfd03
04e60702
fffb0403
ed0c1303
fddcfe08
01f20509
23f4edea
0ee3ffef
10e3f0e9
2af105fb
1f1aecd5
11e603f7
2803e5dd
1cf9fae9
0b00edf5
1d1a00fa
200ceced
0de8f80a
19dbefea
0209ff09
1dffeaef
27e8dae0
15f7040a
07d6f70a
11fbfbf2
1a08eef9
20e9ef07
0fdefa09
0c0600ff
09de0110
22e8fb09
26f4f203
01f8fc03
14e6f6f6
14fdf5e8
f8f20b17
0ffcfce8
fee31209
0ce30407
e2d52824
0a08f503
0c15f601
1effe9ec
13dc0904
08fbf603
13fce6e3
220af4de
2213e4ea
1220f0e9
02020313
20f9edf8
0de101ff
ede71519
25eb08f6
09f8f5f6
fee41c27
1afef4f2
fcdf1f1d
2af6e9f1
1af1ffed
01ed080d
19edfb0a
13ecf6fa
07e9f6fb
0be508ff
1de601fc
2bf6efde
0de3fbf9
11d6fa02
01f10407
fff9ff06
1303f4fb
08f109f8
0fe1f9f7
03cb0315
0af60ef7
ffe8060e
13fd01f5
f7e31518
16e004fb
e606211d
f2d71715
1d07f4ec
3120dbd0
18dcf0f8
02cf0f08
16ebe7fc
06010cfb
2801f5e6
1d2edbcf
15dd0a05
2a24dbd3
1002e9e9
19f2fafa
1405f0e5
08ecff03
2ef8dade
1414eae9
04ea0b24
08e10816
02e00c0c
0227f5fd
f0f80f20
21fae9e9
1408f0e9
0e100f00
1d05f1ff
13dff7fc
15f30a0a
1303f4e8
fa24f800
ffec0e11
f3e6131b
fad1fdff
2600e9fb
0de2120a
0ed50e07
0f0dfaff
15d50b16
2af6e5db
2afed7e4
2539dce0
0df0fffa
1b07e9e8
03e4090b
fdf7181c
f5d20217
1cf7fbf3
04d80619
07f1030e
09e10211
efd80c1b
fede1504
10bb0317
09e80911
08fb050b
14fff3f3
fad60d0f
01f20c09
00f11815
16f708fd
0def0705
2306f1f8
151304f1
3506e8e6
2513e2d3
1edd0503
15ec1113
2200e1f7
fed7080b
16d402fb
00e7fc03
0ac70a1a
0ae20e0f
e3fc212b
18cbf4f8
14dd0c12
2b16e6df
0700f9fc
e5d72623
10060802
ffe01019
1e1dddd5
19cc040a
e9e32431
fde50b1c
0e0504f8
300fdfdc
14ff02f8
f1e30f10
fdf90c04
d1f6192b
1c30f1e0
05020a09
f1081206
0aebf908
18edf8f7
14fdf809
31eaeeea
f3ee1913
1d26e6e4
1810e2dd
1ed702f5
14f203f8
0a03fa07
11ee0304
efec1e1f
fbd21008
13e9f1ff
0dfdf900
1cddfcf7
08dd0a13
0be1010a
04da0b06
09d90a09
0dec0719
01d4251f
09f20b07
01d81604
1af6f3e8
0beafa10
07e7fa0a
03f70902
09e7f909
1b05f1e6
0cd40510
091313fc
11ed0e1b
3d13cfcf
1c0df9f6
0bf10d22
0fdef80b
1e2ee6dd
2df1f9ea
0deffe09
08ea0809
e7e81118
e7e2192e
02d52011
eef10d21
2503e7f0
e3100210
14eced05
0ce9080f
07d4030e
15dbf406
13ebf2fa
08ff0d10
0c0cf1f3
1bdff0fe
1d0ef1fd
0be60200
0a0b00f6
0df201f6
0dfefc03
19f5f5fa
2109ece2
1b03f6ed
180efbfc
1cf7effe
2f04ebd0
19e60404
0208fc06
15fffe07
2320e8df
06d31019
0cecfef0
1ce20703
04e4f6f4
10e0edec
edd4211c
fdea0913
09f60b15
03e10a0a
0bf3faf6
05d50803
0eddfd04
1addfbf9
01fd0cfa
f5d0101e
110dfaf9
eee31d1f
f9e0081b
0404f4f0
06f10e05
02fa0c17
0ffe0104
1bf5f3f3
18fbf809
0ffc0aff
ebd81935
200fe5ec
190ee8f0
20efffff
1a0a09fd
1418fdf6
11ee0bfd
fcf806fe
332de5d2
03df0012
082bfaec
e3f11224
2207e9ee
0cf50306
0f21f5e7
0af40c03
14e90e04
0a0bfeeb
fe000512
16e9ff10
f4ec0f0f
000d010b
1300f7f0
0615f7f8
11f603f9
250dead7
2922e3de
0b0d0e0f
151405f5
0ff70709
0c11040b
04ff05f8
0b0f0a09
1413f0fe
0deffcf8
fcef01fe
faea0509
15ea08f7
00f0fd04
0be3fdf6
05da06f2
04d20e09
0cd9fc04
f9e51004
14e9f0f9
11d0090e
07e900fa
18faf5fd
09e9fafa
eef11d1e
f3da1b16
05f31314
f2fc1528
1b09fceb
fb050811
100ceeeb
2615e1f7
260de6d7
0919f6f5
10fdeb05
18f8e3e5
0f03fb0a
feef0cfa
f2e61b1a
291bede0
0132e5de
1c0ce0da
10e3f5f0
00f2f4f6
150bfff6
1d20d6d8
10f6fc0b
f7dd171e
1c0eede5
09f9f6f5
05e10718
ebd42a19
e30c0308
2b09fbdf
ffea1727
2507e4dd
1af8f5ee
1524fae5
0fddff06
3510eee7
2927e2e7
0934f3ea
f7280f03
131404ff
030df4f9
fe24fe07
fa05010c
070f00fe
171ce6e5
00fcf802
f3ec1a16
02fa05f8
1900fef2
07d0fbf6
1bd903fe
12e2110b
06e51014
1bddedf8
17d9f6fa
06c8fe10
02ca0701
23e4f9fb
0beafbfd
f8d5121f
f7cb1e26
0b0d11fc
f5de1511
f90f0e05
1514f8f4
241bece6
080cfa07
0815fcf9
06f4fa1c
120bfffe
11f808fb
17eaf707
1017f1f0
0bf40c19
01f6202a
1de7fe05
20e6e2e9
31f8e2e2
fbfa0507
1f010412
01f4030d
0af40007
16f11112
ecc22539
daee1e34
14defe12
1bdeef0a
2a22d4db
2116e0df
f1f70e0f
191fefe3
260df0ed
1a0ff8ef
0a1c06f9
1525f2f0
080dfa01
190ef5ef
0bfa0f0e
120f050b
fd18fd0d
032fe8f3
f8000d16
fa070211
120804f1
0a02ff07
0af31805
070101fe
f6e30e16
e9e72016
02e0101c
13de0105
0def0809
0be50815
1fed05f2
ffe2161c
14dffb02
1bdf06fc
19e500f1
0ee8fb07
09dd0b16
03fb030d
fae30607
00ef0606
0614fdf2
09ee121d
08120a01
0618f7ef
080decf0
1228f4ea
2105f8eb
2010f6ed
0f18f2eb
0b0ef2fd
0f1cfd05
08e31313
e9df1e1e
141202f7
01db1a23
13f101fe
fad41929
ffe3131f
2ef2eff0
ede50f20
0a0003f6
11e7fce9
1107f5f5
0ee40c07
eefa0924
1800fffa
001303fb
2605effb
09fe0a0a
140702fa
19f1f9ec
101001fc
1911fcee
1717f002
003408f6
112fe8e5
fa1c01f4
ea052328
0a1e04f9
020a110a
f6ff1317
070ef2ed
fdfe140d
f3ed170e
0ada0906
f5e50d1f
01df1a0d
13e70f05
03e80818
f5ec0c19
11f3040a
fbd61720
09e40207
19ddf3f5
24f1f7fc
04eb020b
02ed0309
0f00eef9
100af5e8
fffc0908
1710f2fd
fb05030e
ff0ffff3
11080700
2517e4e8
1d2ff5ec
110af704
0d28eee4
103709f3
2015ebf6
030cfb00
0413e8e4
17ea07fa
111bf7fc
20f3fdfe
edd31b31
f7e11b28
02fe02f9
08001107
1605f9e4
fcd7030b
11de0c0d
0ef10d06
f00bf60a
fbf41a20
fbdefb08
02ec0613
23eaf5ee
02050105
1513f4f2
1b1cf7e8
fbf20b0f
2a30e8e2
0536fded
162fe8e4
02110504
f81b030b
f117020c
f51510f5
f11d0d06
eb130cfc
02ff04ff
f1f70715
0e040f0e
07030203
0b011203
0cf20d05
03e61107
ffdc1312
14d31016
0cd81219
03e40509
04d90e09
0ff7f8ee
04f50e09
fef0060f
fdfe0d12
02fb1102
150402f9
0702030a
1f11eae7
0c15fdf8
0c0cf0f8
091ff1e9
1b13eaec
1934f0fa
141aecf1
110b0804
0925f2e3
11200f09
131cfcea
1d1cf8fa
282cdfca
0d0bfe0d
fbec161e
1312f1ee
09f01615
1a11e2e0
08fbfe02
f1f91d14
f0ea1718
f1d91e33
15f7e7f3
01fe0206
f52504f4
0719fbf2
1c14f4ed
1d12ede7
2935d2cd
2d1eead6
0d1d07fb
1702ecf5
020ff3f7
062704f0
1e2adde5
1627fdea
101af5f0
001009f2
161af0e9
071400f9
1413e8eb
1f0ee3db
080ef602
ef0efdfe
eaff1318
04ea0410
f3d81117
fdeb120d
07da090d
00e91419
fed81e15
06db0e17
08eb1f0b
10f90709
0eef03fe
0ff61209
ff0b0c11
05f91c0f
0000fe10
0d13fb01
18160cf9
0a050c1f
1a23fdf1
ff2308f9
092501f2
001a030e
fe22020a
021df8ec
243ce3d8
0b2d0fff
0d01fffa
231cf6fc
08fe0b16
1fed0f05
fcf90202
0acf1010
2ffae3ef
2c20d1e0
11000200
1ffdefef
0df5100c
fb18f505
00de0e1f
22f00204
0fde050e
f6001e09
020c04fb
0e0502f1
1b19f6f3
132cf1da
fb0b0b06
0f14fee5
1e21ebf1
101ef9f5
1026f8fc
0f2afa00
1240dee4
1824ebe9
021b00f2
1315f0e7
02190b02
0f1c02ea
110f0afe
f908fbff
cf05272f
02041317
f9f80911
03f1060c
03e81328
f2eb1516
fdc71f18
eee11718
0df4faf8
01f11918
0cdb1717
0d011107
fd030e13
0bf90f1b
15070af5
02030c09
1b1202f5
f2231307
0a2306f1
13160cf6
f92df800
101305fd
1931f4ed
102eeedb
1a27f7ec
1f2fe2e7
162cf4f9
140af5f0
0321f303
1d0805f3
101dfbf7
f1d3262d
09fe0708
f60f0c05
0dd5040a
1ff1f9fa
f1e61516
2720f1f0
2a25eed7
1eddf304
2609e8dc
181bf4e3
fee00d15
19ef01f0
0dfd1009
0cfe1818
0614f600
1b29f7da
0b20eef3
0925fbfd
131ee6ec
0818f2ff
1626ebe5
0e2ff0f0
0b2505ff
041e0910
0b19f709
f8220403
060d08f3
f20c0c17
f0eb1d26
f2f70b1c
e8ed2521
e9ea1228
f3eb1207
fef71805
f7fc110c
f5ee0b21
03e4100c
ebe4111f
0aec1413
f4e82916
e9fc1c13
effc1b0c
fe0efbfb
161303ef
0f25fbf2
0818080b
0621f8f3
0117fc02
0a2efaf1
102afbf6
072cf505
1e31e7de
1624e9ea
062107fe
1a1f06f3
1b19f700
2315eee7
1502f309
17fefc04
fce40e15
01e9fbf6
f7df0e0c
2bf9e0e4
f60a0cfb
fdf0121e
2805fdef
fe0805f7
0b19f4f6
0de902fc
fe19ffec
2327f1e6
02f6030d
020a09fe
151ff501
03140c11
ff1ef8eb
0c2fe3e1
1527fbe3
0336fce8
122cefec
0a23ecf1
0d17f602
1c19efee
fb290df5
060ef907
191afae6
f6041207
f1f4130b
eb001827
f9ef1b13
f40a181d
f803170b
f6f90824
f5f91e12
eef42321
fef31214
0fef0209
f5e60e16
f4e92019
fef41016
fa0d1711
fa0b000b
060c090f
121ffdf1
2222ece2
0e35f4ed
f51e0800
0b2bf6f3
f623f8fc
00260905
ff1c01f2
1a36f4f8
0a2af7f8
1c27f2ec
fe3001fc
0b22f1f9
0427eff4
fc0706fe
0ad80710
100ff0fc
2cd8f1f4
3702e9e8
24e5f60e
1c03ede9
f80aff17
f6e80b19
08fcf3e6
16e5fe16
f9f10a0e
110dfbf1
f504fe0d
0b1904f7
0d0bf2f6
0e060201
0f18f2ef
101dfaf2
1f1feeef
0d2df0f0
1024ece3
182feee8
051900f9
fa27faf4
fb39faf4
062affef
02210afd
f2181210
e60e1b23
fd03070e
03ff0a08
14000204
f5fa0518
f9f1181c
f0f01410
dcdb363c
f2f81114
ebf32929
09f90815
fff51018
edf90e1a
fcf0191d
e9fd1418
03151217
eb0c1017
060a0a11
0d1efc03
072202fb
252be8e5
123101e8
1c3ef3f0
0737f3ea
fa170206
01230105
0b1a090c
2129e1df
0633f3ec
01340202
03f71b09
1f21d4d3
0ceafaf0
15d703f9
0404f900
f9ee0913
1a11e8e2
161defec
f3ec011b
edf41e22
19f6f5f6
09f6030f
17e30600
fe1cf8ed
00010d0a
031df6f7
0a07fd0b
0d36f5ef
edf7110f
061c0005
053aeaf6
1933f6f0
0d3bf4ea
042c04f3
0223f603
0a2ff9ec
021b07fc
f51913fd
ff131513
0d0611fe
03080c06
090af2f9
12fc0702
1413f4fa
05f0130a
eefc1025
f4fb1f14
fb050f21
08f11019
0c0b0b0a
fffd0e17
fcf91c1b
f0f32828
03020e19
01fa1913
f5250afb
ff160e13
f3190300
0e2bfff8
1313fcf7
0b1704f7
08170503
fa31f5fe
0328f7f3
0721f7ed
f51b0bfc
103df5df
1b15f4e3
150df703
1418fff8
0d20ff01
fc01f503
0df1f8fa
1e05eaf0
f2d00e0c
0fe8fa0d
fc010403
15eefbef
0be40e0f
fce81217
2af5e3e2
060800ed
15ddf90a
0e12fef0
f2e91720
031df205
fd0e0c07
ff2501fe
f01bfdfc
02150bfe
1435f8f2
0a30f4ee
1d32eef2
0a3407f1
1137e8f1
023004ed
08170704
ff22fffe
122e04fb
021d0a05
0a2602ec
f911120e
fdff070b
04f3fe09
14fbf80c
0ff3081c
0dfc0f0b
fcf31a15
e9f10a10
0dfffcfb
08061417
0cea121d
0cec2022
f4011f0b
fa0b0914
05091212
02fb1a1c
010b0910
14140f11
1023f605
fc210a06
002f08f8
f0280305
0821f9f8
162ff5f6
162af6f5
021e04ef
0e19fcf3
0a1bf5f5
fb1cf103
fe090806
1513eedc
0d0deaf6
ff0ef6f2
0cd7f90b
fd0704f6
1fedfaf7
1dd8fef3
25f7f9e0
2724d7dd
10040300
08f40002
18eb1615
fdf01702
01e00e08
e8f10a18
0a0ef509
0c0debef
011df6fb
0b26fbf6
022b02fd
142ffcf0
102b0906
0333f701
0d1f05f0
022e0af9
0022070f
112b03eb
05250e09
0424f406
fa131a09
f3100513
1e0ef5fd
19ff00f9
08080819
10f80303
06ee0e14
1ef10a0a
110e0afe
04fb1009
02f90c0a
00fc1d25
fcfc140e
1505030d
07040923
081c070a
fb130000
13190006
ee151d0a
fe1c0708
0724fef1
ff27ff02
1122f8ee
0c1701f4
1c20f9ed
190df90d
020efa06
121cf7e0
031deff1
0b1e00fa
0416f1fb
160ce7e5
0ce3fbfd
f1fa000f
170bf8e6
2b18e7ec
1be5f6f7
04fb150e
2928e1e0
1ff30301
fd050f07
efea2726
2719f9ea
12f5fd03
0a0d06fe
f9e41d17
0311fe11
111ae0e0
050ff7f9
fb08fefc
fb070efb
0c1801f0
051304f8
061c10fb
17170c00
1337fd0a
0a200a0d
1711fdfa
fc11000b
fc1b0415
fafe060e
f9121011
ff13120f
05f10e18
12f60b10
fef60d0e
01f51004
1bfcfdfc
1203fd0e
050803ff
010f0c07
f7f60b0a
e90a1011
090f0d0d
08160312
161efa0c
0405fb04
f70b0614
f40f1808
ed0c0f07
00140e03
0c23110d
0e1afdfb
0118fbfa
091204f9
140402f5
0a1bfef3
120effeb
12f1faf0
01080508
05f7fdf3
03eb0aff
2315efeb
f3fa0807
fbdffe10
fe070e03
03fefb0f
16fdfa00
0dfafbeb
fa07f9f8
01df1913
18e1fbfd
08e60b1a
11e00607
1a0cf8f0
ee020f20
02e90105
13ec0ffc
0e05ffff
0614fd03
110b05f8
11150104
12150803
07090dfe
0318100a
fc200214
f40c1708
06090313
101b02fb
f516110c
070e0204
f1111a14
fe0f0c19
ffe51323
f7fd0904
0fea0406
09ff06fc
1423f7e4
1a00f701
11110000
08050904
0c11f903
1414f6f6
fe170910
07011c09
ff27fa0e
0918fe0b
fe220af7
0a23fcfa
f60d0c15
ef09051a
ff10060d
1113fc04
f2120f0f
1d02ff0b
020a060d
191febde
08081305
fd1201f9
f3ee080c
08d71505
0b1806f6
fd08f801
06e60b05
12e3e5f5
1e14efda
0dce00fd
0fff050c
16fbf5f2
090c090b
13e20d15
16ea0bf7
14f2f5ee
0d0eeceb
11f8ee06
12def7fc
02e2170f
26e901f9
030efffe
00021419
0807fcfa
140203f6
081a0c06
0a0c0500
fd0d161a
e90c1e15
0e08010e
1f1b06f9
0818fb00
01fd0708
0102030d
fd010211
f5040416
0ded0513
0cfc0f0c
130bfc06
1a23f7eb
01000807
0d0300f2
130ce7fb
0b0b0200
19faf201
11fc100e
1803f901
0cfc0507
f2181b10
f5fd1e24
04050b17
f6240ffd
f30a060d
0d220a07
fd170403
ee081712
f3071100
04120406
1dfbf5f4
04f0030e
06f90e0d
08f6fe01
07fa1008
f7e8161b
0e06f502
12f504fd
f5090c12
faf82021
1ef0f5f3
f80b0a0e
2207ede0
0bce1b19
f7100516
0e14effe
0dde020d
ff02f906
0ee105f9
080100ee
fdef0104
f2de1317
13000601
00ee081c
f2f80f1e
f2040216
09e60504
0506fcfe
03110b0e
f900171b
f90d0113
0e15fb12
fd040b03
f8031a24
f5051b11
fe10070a
01050c13
eded090f
0ef21108
08e31216
18f1fc04
0618f2f0
12fbfdf0
0c23e7e4
2822eddd
1024f6f0
0b15f9f2
1416fdfe
05060c11
f1ee1916
f4191617
f9041210
f70d0b05
eafd1014
f9040405
ef020b1b
f00b0e06
f9111708
e90e0811
f3041c12
fbfe0609
fdff1c08
f7f11821
01f40814
03de0508
fc0c03fa
f3ec1a1f
0fda0604
1ad4ece9
09f9fefd
1bf3ecec
261ef0f2
13e0f404
040ae7d6
25e6eadc
22fce5df
0deb050b
0df9fcf0
0ebd081b
f9e2020b
0ceef9f7
1bf5e8f3
14dff90e
17e50111
0be10d16
0af2fef9
0ce41003
fcec0d13
f2fe1a15
f3f7030a
0c08fe15
11170d0f
080e0711
03fa1d21
f60c1515
fdf80f1f
fbf20400
f8e91913
16e9060c
10d7030e
180dfefe
1517ece4
250ae6ed
1838d5e5
1d21eae1
1506e8e8
1d15f5ef
110e00fb
0903fbfc
050cf9fc
14140af5
f1051818
f8022121
030b0110
fff50b14
f2ef1e15
0dfc0514
f4f7080f
ecfb0b20
01f21723
f0f5151e
05ee141b
f0ea1514
f2e8040e
f2f8160e
f1e01718
f1df130d
f1fd180f
09e611ff
18fbecf4
0c06f8ec
fe2800e7
13fffeef
01f504f5
0ff00100
060d01fa
1dfdf3ec
06bc1411
0cebf6ff
08e41c10
08faf604
16e6fdea
03ef0af5
14f009fa
15e90d06
1ae906f5
13f40b04
04ef2016
fcf2180c
eaf51221
0701120c
00010318
0402161e
0f0b05f8
200a07fc
00fc0014
1ced0506
1fef0708
1f0ae5e9
12f5f809
171cedda
2132d4cc
2b18d5dc
2b3ed4ce
214cdfc5
1b2adedf
22fdefeb
28ffece8
15fce8f2
110ffdf4
0a00faf8
ee071711
08fc170b
f0090f15
182006f4
060a0200
03f40b0e
f0fc1227
f5fd171c
f8021a0c
02f20d08
f5dd0b1f
02de0f0c
06f007fa
09df1011
04e3fa0c
05ea1108
01d11f1c
000801ec
04faf404
0be50008
0f00ff09
14d9f6fb
1fe503ef
260cd8cf
1705e3e0
0df6fdfa
10e5fff6
22e101f2
10d7f0f9
1dd604ff
17d0fafd
20e7fd06
12db0110
01ec0b0b
10ec150c
f2db1c19
f3f70408
ecec201b
f4f10714
0def1705
fcf10f13
ff0a0500
0c0512ff
fcef0716
fcf60414
1e06e6ed
2706e9e6
2307d7da
23f9f0f0
1521dcd8
191be8d4
272ad2ca
2505f1eb
1d05eae4
1308eae0
16d9ee00
18fcf1f7
21fbf1f3
1418eeeb
090608f3
faf82b24
0df71803
03f30805
fdfc0408
0e0e0bfe
200700fe
f4e2181f
edeb121f
f2f00926
f4e41e16
fdea0905
10e11415
07ec0c1d
0c010413
06d80504
07d60e14
10e30d05
04e60301
19e1fcee
09e704fd
12dafb00
160ae3e9
07e2fd09
2b0ef5ec
0bf2f4fa
0fe4fefe
0febf203
00c20b18
13ec0a02
0fddf5f5
1aeaf7ed
13e1fafa
18daf6f6
1edcf914
f8d5060f
03d91210
ffed0f10
f4dc1314
fcef190d
07f90c0a
0f0008fd
1200f704
08031007
05090210
02060707
1a02fdf1
1903feef
1d10e1e6
2509d0cd
20eae4e4
1b19e9e0
1d04edd8
1b03ebf9
19e3ddf4
18f1e4ef
2517dfe8
15e9ebec
06f7f702
2639d5d9
1a20e5eb
0afe1101
0fed0109
0905020f
0cf40112
04fa1000
03fc1221
f0e51e29
f0f5202f
ede91619
e8e62217
f3e01c1b
09dd1614
0febfe11
fcd8190f
0feafc09
0edff7fa
11e10e03
f9d30c12
0ae5f6ff
1de9eff9
2ff7e4e1
10eb0006
0e02f4ed
18cff8f6
fadd0413
09f4fcf1
fbd0070b
130303fa
0fe2090c
17d4fef6
02e8fb05
fecc0e0e
fddd02fe
0ade0f08
0cdd0e0f
f5d7071b
ede62024
f6e32124
fcea1c24
02f1151d
0ff10b11
fafe0509
fefe0314
f9110304
08050305
0cf0f4f4
0df901f1
1a2ee6ce
21f2ede6
1419f2d8
12d6f3f5
1eeef2f2
1415ddd9
19d1ecef
2bedd5e9
0de0fe00
15f9f0ec
17e603f9
23fcf7f2
1b18e8f0
112c01ec
021603fa
fa030e16
06fc0518
03ef040b
f8f8131c
f5e40f1d
dbdb1b28
e8dd1422
efda1126
01d30e17
19de0efe
07ec090d
07df000d
0bdb0c04
f5db1409
06bf150b
05f20112
0efa0706
1cfef3e4
11e4fdf7
1afbede5
09e1fef9
3b25e1dd
10c10205
02db0809
f10cfe00
0ecf0b0e
fb06fb06
02eaf6fd
1fc9f4f5
12e0fa00
02d80d08
0ccd1a0d
f6cf2023
01de1a2b
eef11914
e1ef181b
ec031812
f6e8191e
11f3ff05
1a08eae6
0d1706f6
1819fcf7
070fe8e9
2c03daed
2510e7e5
1929dadc
1602f1db
23def7e3
18fee4f3
09e9faf1
1ceff0f6
1ae8e903
22e8f0e2
2629e7e5
181fddd5
1e0ed7e3
252adde2
1625f2f1
fd05020e
00f51303
ebf7131f
0a010e0f
faf00717
ecef0924
fef60c16
e3e5202f
eaf32718
0de80f0a
03db1707
02d9120b
05d7081b
fad70c03
18ec0f0a
06e7fdfa
03e40c0a
03fc1100
0704fdf9
2010dfe0
1707f1fb
3104e2d4
1e02e7e5
17f402ed
00cf020c
fed71604
f8f906fc
0ff0f704
fbe40918
08d60c08
1ae8fd00
07d40205
0cd30c14
10e2080e
f6e1141c
f4db2026
fde50f1f
f0ee1424
03e31308
02e72020
fdfaf60d
09fffc03
fdfc160a
0cf61113
2222eeec
1407ece9
1e24e1d0
1c2de3e6
2341e2c8
15f0fffe
0e0af3ef
1bf6e3f1
19f1f1ea
1cfd01ef
1613f5e6
1b23e0e8
2721dee5
174bd5cf
1530d9cb
231de8e2
0208f7fe
0c0cf0f6
16fdfdf5
0307fd03
f6f90b12
ff060e08
ebfd0729
eadc1e2c
f2db151f
f8e21416
f0d81219
20f3f2f4
12f2f2fa
f5d60d0c
07f407f8
0e0008ee
09f006ff
f9de0707
19cffbfb
1303edea
1ebfe7ff
29e7e3e3
2af7dfeb
2604e4e9
1dececea
14f008f4
12d90502
07cf0b14
01db090a
02dc0913
14e4f907
fdd21a19
fece1318
18ce050c
09dc1a05
ddea1e2d
ece82421
07f10b07
f1f11221
f4011315
05e71012
09ff05fe
09fa130c
101a05ff
1bfcf2e8
2014e1cd
312ad6c4
241bd8d8
220edbcc
2507dce5
11dee2e5
2707d8d5
11dfeded
25f0e4f7
14f4edf9
1722f4f0
11dbf1ec
1924dee1
3429d7d7
130201fb
090bfdfc
231be9ee
1f06f1ee
0fee0906
0aee0c0a
04f0f604
fdef101b
f1db1c29
e0ef1b28
f2f7201f
f2f51812
1fd31101
08f11702
05d50102
fee1141e
0ad90f01
08c9fb0d
ffdff4f9
0cf0f8fe
1ac802fc
11e5fffb
fff0030c
04c3f904
0fd300fc
04f600f8
14dafc04
08db02fb
03e61707
22e008fd
fae9ff16
ffd3fdff
18d60408
2dd8ed00
16fd03f7
02f01110
e7d32a21
efcc2a2f
00ed1110
f8f31d13
fced061c
fcfe0716
150ff3f6
07f60517
20fe01fb
2420e0e3
220ef9eb
2221e9de
1d1ad9d2
2502e0db
2307eee6
1bffecde
1509e8f3
11f9f7f2
1ceedfd9
21efdedd
24d7efe5
2702e3df
1716efe3
0ef3e2ef
0907f7ed
fe04f903
21f9f1f5
18fffcef
f9040cfb
14100400
090cf4f2
ecea1411
e9de0d23
e6da291b
03e5101b
fced1310
00d91424
08da0e12
fae0080a
0edd07fd
07e5f1f2
0acff600
13ebfdf8
0ce6f1f5
0cffe7dd
2909e2df
1c23e4d7
19ecf0f0
1dfcfaea
1600e7fe
09e6f202
eace1625
fbd30b09
1ceb0dfe
ffd60a0a
0e0009f5
05d80f02
0fcff908
1df008fa
02db101c
ebd91d23
eede1528
f5ed1b21
f2e61b0e
08e10a20
00f5fc05
08e90c1f
04060a0f
00010907
14f9f7fc
0e08f4e2
1dfdf3f9
1601e1e0
2201f3f7
2800e5db
24eef200
1e0fd5dc
0aedf3f4
1bf7f1e9
1700f3ea
24e0e4f0
10ddfcf5
0ff5f5ef
16f1f9f2
17f10103
f8fb0014
2106f9f0
15e9f6fa
fc01ff08
0102f107
fbf0f9ff
02ec1219
e9f80f15
f7e51309
eef51a0a
f6f90504
1ae90503
11e3fdea
23d5faec
0cd60c0b
0ee501f6
060000fc
e0c30e22
18d7ef07
0f0eebe9
37f3e5e7
12fcf3eb
1c0aeedc
1ef70af7
25cbea02
13f9f2f9
0f15fde6
08060307
fff50f10
08e00908
1adc0607
14eff7ed
fadc070f
f7d81413
04f61513
02f0110f
f8e1151d
f1f30610
ffd91418
fae40a0f
eef10d19
f9f10912
fae80a05
ffea1d24
0a1bfdf7
1d02f5eb
1ae5f3fe
17ebeaee
17ebf6f3
15e6f4e5
1e0be2f6
1b0af1e6
1c36ded9
1c2cdeea
1704eee3
14fde6e1
24ebedf4
19f0f6f2
1df9e7f3
0bde1301
0af407f9
0c1bfbfb
0a0704f3
f1f4fdfd
f3f80505
f306fe00
e7f70b1a
daf01124
e8d7121d
fef4fefc
0106f9f8
e4ec1614
f1ea07fe
eedf0b17
fbd50d0f
f4c80a0f
01dafd01
ead00c0a
04c60afa
0219f4df
170aebed
1c0be4e4
1227e7e8
24c9ebee
22f4e2e0
15f4f5f2
f9c50c17
f7d91614
efec191c
fbe7170d
0be50b0d
0cff04f5
07e206fb
fdf2fb08
01ebfd0b
f4f01c1f
f7fb1211
e2f41029
dcf82214
f3031411
08ee040b
09f700fe
00001218
fdea0a14
fbdf0a17
1813e2e7
26f6eff3
16f3dff2
17f2eef6
2422ecdf
2200e6dd
2127dbd8
182fe2d6
1d11e9ea
1e17d9e9
0df5f9ef
23ecfef1
1af1f5e7
0c06fb04
0f0b05f5
f4ec090b
120bebeb
fef9000f
f8fc0a14
eaf20e15
f4f9111c
e30d1418
ef0f1004
dc000706
eae72427
08f1fb0a
fff0fc05
f0d31611
02ee1403
ffebfb0d
fef60fff
fadc0503
07fdf805
010afb0d
ef09fe02
fee00b08
27ffe6db
1efef6f6
27fbf6f5
f5d31416
0ce1fd04
1be7e5e6
fbf00cff
fef2fff4
00d6130e
0de30e0f
06f60807
14f5faee
fde8120f
02ee130e
ef0d0413
d80e1d1e
eef20e0d
f50c0f18
e8091808
ff000b1a
090b0d0f
fd0e00f8
070401ff
fcff1e1a
0ae80505
19f401f8
11e8ff0f
120ee3dd
16fbf0ec
1ff8fcf8
1f05f4dd
161fdfd5
2007e5db
1d1de1ee
0f18e1de
07edf8f0
0903fdea
ee01080c
fae61021
eeeb1b10
010ef9f4
e70103fe
f81bfc08
e70b0210
eff7171a
dff81b1f
e4050c16
e40d150e
e0ee1a11
f4f7120f
f90002f9
f8f2100f
e7dd0a1c
11e50bf8
05f805fe
120904fe
1217fefd
eccd0610
fd010af8
1fececf5
31ebecdf
0021f8fe
38ffdfc7
25e1e6e6
fef90307
0bf8eced
0afb0005
0de40909
02ec1512
f1f80e11
00f2fe05
0ef2f801
eff61617
e7f41f11
fcf30101
f1f50d15
eff9130c
f3160600
0205000b
fa20fdf3
00001112
0b1d01ea
0006061a
ee151513
fbfd0b1d
12f606fd
0c00f905
170ae6ec
2706eef1
13effdfb
0f05fcfe
1f0cf6fa
200cf6f7
1f0df2e1
1dff0304
141100e8
0a11fd03
f4f8fa08
fcfa0e1c
f31d1310
f9120a14
fa0c0f03
fe1bfe0e
f4190c09
ec1c050b
e3110712
e5041503
dff90b1c
f1f0150f
e8080f13
ff07fe08
f4e81a15
fff00a0b
fe000eff
f2c1231c
fcd71914
0a09f6fa
01f00504
2deceaf4
0905fbf3
0fffeaf8
21e2fc00
3010e9e1
240bdfdf
1ffef3f3
1bedf7f8
f90507f6
fae10b0a
04fa0606
12ee1016
f7fafb06
0c0f06f1
fafefff4
0a1af3f4
07080106
0904fafa
071cf501
0e0e070c
f612fe08
f71b0b09
f801140e
f817160d
f9141716
f7240107
edfd2317
f30d230f
06e9091b
01f6ff0d
05fcfe01
0308ffff
1106fafb
1c06fcf3
1c14f0f0
1707fbf3
00fdfe19
0ef4fd08
111ff3ed
01e6030f
f1121518
fa07000c
ff10110d
fc080210
e61a15fd
f7200efd
02210d03
f00e0a00
ea1dfc09
eb010f0d
ec0411fb
1219efe7
fffd1002
f6040301
f90e09fe
faef0b0e
19f603f7
ecf4040f
f7de050c
10f00d10
260fe6e7
17ebf7fb
27f3e7d1
04c91025
0bf0fbf9
23ffdff7
00d60a12
0303fc04
fde21b17
27fffdf7
05010d0f
11fb0109
0002f601
0422f4f7
030dfcee
ee07ff08
f11902fa
1123f6e8
fc16f501
02180001
0210fafa
fa1607f5
f8100c0d
f9080f0e
f70b0602
f11e1307
0417ff01
e40b2123
16010d12
0dfefb09
150100f6
1c00f1fb
0616f6ee
101ce5de
0b1ceee8
0300fb06
1210fef8
090ff810
fa030206
f91bfb00
0522f9f7
0904161c
fa0f090b
ee09000e
fa22f4f2
fa1907fd
f218090e
f71bfafc
f70efaf1
dc0a0506
f91013f7
021bfce9
ea16fe06
0000fc07
09fd0d08
0a0401fe
fbf6ff08
fee80606
00e102f9
04cb0717
1befe7fb
0f1ff3e1
1cd7f202
18ebf809
2c0de0df
18f5f2f1
15d1f0f9
13cb0d0a
3220ddcc
01f20802
d9db2229
ff10f806
02fc0410
0a0c0d0d
051ffe0b
f2151016
022a0901
f2190309
fa25f902
f0140d05
05181301
031b0100
041af8f3
06200014
00151317
f81c1a10
e6181609
00fd0d17
12e80e0f
18f50805
2cfcf0fd
0a08f704
1102f805
02fffd07
0efd0206
06fc0704
090b070a
14fbfa0a
05fc0f11
00002117
1111f500
e6ff2115
ee160c16
f60a060e
1319f3f2
f91207fe
f326120c
f1221112
f72a1206
011302f0
f3140ffb
101107fa
f60c0d0d
030f030d
fe00140e
15160303
06080707
0e0be3e8
fce81020
08f8f8ef
f1e41611
0ae404fe
21f3f0fa
10f0f9eb
1ee9f7f3
07daeff5
22f5e9f2
fdf5fe0d
02f2f805
090ef8fe
070800f6
04130201
f5fd0a06
fb13fc08
f5220bfd
ed0a00fe
052507f4
0906fe06
182bebeb
0325f7f4
f9180314
032a03fb
0d1f00fa
f61804fe
fc1b0501
ef0b0a04
ea0a1f17
02181b06
01f6180d
04080a04
0af9100c
01f9fffe
0f0fff02
01000d17
ff031004
0af6050d
0cf60e19
fc070d13
e8ef0f19
f4fc1e1f
1312ff01
ff0a0719
ff15fefd
0e1806fd
09230109
0a15fe00
032708ee
fe120f13
1733fff5
031df502
f817fe00
f11cf5f4
0625fd01
0c14fa02
ff090612
f611060e
01ff100b
fb14fef9
0a1fedfa
0b00f0f0
fde40405
17e1e7e7
2807f5eb
fafb1107
08eb140c
f01012fe
1905f1f1
00e20314
0efd09f9
050ffef7
ebfa151a
0b21f1ed
061ffbfb
f322fb0c
f81509fb
0d200203
0d2ff4ec
1133fef5
0618fb03
f0211400
091d0908
0f11fc04
f6100a0f
0917100e
08231410
05191101
ee01090e
02011415
04f71102
10f60715
f9f52220
faf20e0e
210bf802
0b02080f
0bf0f8ff
0af70d03
13fa0af8
03e90704
f9df1623
ff020002
f1160817
ff1a0b14
f8041b11
020b070e
0b2702eb
091702ef
071700fe
062efefb
0934ecf2
042af5e7
0e33ebde
0ffa00ff
fa1d1102
0e1bfafd
1208faf5
fd0014fe
1116f8e9
1e0ef2f2
fcf8fd0c
1609f902
06021412
2205e7dc
2beef6ec
03f3f4fb
01e00d09
3cf1ebe8
fcdb060f
17cb01fc
31fbf3e3
0fe60b07
0c170b06
04fb0b04
f10b0c0d
eafe0e1d
0912f404
172bf2e0
1b37eedd
08270705
0623f7f6
0832ecec
0c2dfdf0
0a1afe0a
061bff04
071a0903
0f131116
f7160911
f00a1e1c
09001206
03fd1a17
12f81907
f5fa0816
050a1619
09f80715
14040bfa
08f9f511
00010a11
fcee1511
f1000909
05ec0319
05010afe
fe0c1510
f1012115
f20f0500
02211000
052300f1
062907fd
1629ebee
0d3ee8ee
f92201f6
0b26f1f0
0a2ef7f4
0c14fcf8
002900ee
01080b10
0b1c0102
fa050c08
083400e7
180af9f4
150cfadf
0724ecf3
15d2f5fe
28f4e6e1
0ddcff0e
16df0d09
f3d90517
091deee6
18bc0c12
fee81418
0ef01007
0913f7fd
f0f4020b
130cf4ef
0826ecf0
022501ed
ff130011
0b32f7f8
0f22fef7
193af5df
1c31e2e1
0b30eaef
f72104fe
00310f08
f8301108
f8121219
06230a10
f40d0c0b
ef120c10
f213190a
02fe1e15
ef001a13
06ff1317
fbf4221f
08f90910
f5ed041a
0bfd060d
f4e2221d
fde41018
f9fa0e04
081702ef
fa04170d
ef08ff0f
f01f0e02
f61d170d
fe2ff8f2
f724fef8
06240cfc
0f31f1e4
0733fee8
0623f4ee
0437ebe3
0740f9e3
0031f9f4
013100ef
1a32e7df
0842f9f8
fcf60d15
050dfef1
0bf2f8f9
05e7140f
ffeb0708
0dfef3ec
0100feff
fee80502
fbe90d16
0dfdedf9
08e1fd04
01dc0300
1ffaedf0
09f708ff
2126ebed
0619ebf4
0cfb0917
fc0afd11
0226ee09
1e15f8f3
1b1cdee6
0b1f0408
083601ee
142503e4
0942f5f3
050cfcfb
f72afb05
e5140a19
f51c100d
f313fe0a
e30e291c
fa0e181c
00080c11
fdfa071b
ffed230e
f0e32727
00f61012
eff51126
01d9111c
03ef1224
05e8150d
f4eb1e2c
fff90810
01f1150b
01050103
f8f60d11
02110e10
1224f4f2
0c1b0600
0913f5fe
fd34f7f8
0c1604f3
0631f6ee
0b2100f6
f92bfef0
f2190903
0b27eee4
0f2af3f5
070c0101
fe1208f6
de0e1410
041508fa
16e605fa
fef90c1c
16e4f3ff
f7f11009
19ca0100
0efcfcf8
10c7f1ee
f2f50c17
f80e04f8
1afd0601
1de5e8df
0cedf506
282ccac0
151bd9dd
111de0ed
2d2ce1d8
08200701
09260402
041affe9
0b1807fe
022b04f3
fc2a0b01
0934f6fd
0a27fb01
fe2805fd
0518fe0b
031b1102
041afd06
fdf70520
f4ff190b
f7f20808
f7f71412
efe31a30
eae41117
f1ea2b22
e9fc161e
f2e3141b
e4ee1f24
edee160f
fef01511
feed1d1c
06f80712
f6011005
fb10000b
1713faec
120ff903
1d2bf4e4
1a140105
1124e8f0
051bf203
0838f1d9
0b35f8f1
082aeef8
0519f5e8
1823fce9
092df3fe
2021e6e7
0e0b0708
1326ecfa
0d0af904
1e19dfe2
120a0703
1df8fffa
f1ed1e24
141acfcb
0613fefa
fbdf1100
fc050406
1b09e7f2
02ea0b0f
fe1806fa
f10f080b
f4eb0914
2a20ded1
111eefe6
100e04fd
112bf2f0
fe28fbf8
221ff5e5
040df807
0f23f7f6
0e29f9f1
f32afb00
0032f6eb
0535f2f6
f61803fd
231202f6
fa1ef6f7
0814090c
fc060d02
fe080302
fbda111b
f1e8141a
02eb0d1b
f5ef1227
f1d11e25
f7d91419
05de170b
13fe02fe
f6f11b15
04ed0811
08e50f11
02f903fe
fd05fc0d
ed051111
101ee4e2
0726feec
0517f0fc
0521faf1
062bf4e5
1825e8f4
092dfbf9
182fe9e5
0118f9ff
0526faf4
1510fe01
2122f2e2
02fa0007
f719fbe9
1f10dfd8
0afc0106
f6eb0d04
ebf51628
2b1eead5
25e0fffd
21e006fe
1bfee7ef
23e5fff8
1cdb0401
2514efed
2cf8f8e6
11f4010b
fc000c03
13f40cf5
1f13f1dc
fa1d0904
1211faf7
f1120a13
1829eefb
0722edf6
1920f7e9
051e00f9
ff2af0e2
0038ebf7
070f1507
13120308
0c0b01f9
fe1ef901
fdf7070d
0b00fa04
12f601fa
02ee1313
02e11420
f5ec0c1b
08e31318
f0cb182d
06dc1120
edd61b27
02e80714
fbdf0e13
09e50f12
0aed0507
f6d20a21
0103fd07
fa05020f
1207f504
0a170a09
f020fff2
0f0a0309
f11d030b
062befda
fa2a0bff
fd29f3f6
0f18fcef
0226fae3
1f1b00f3
1119ecf9
1c16f5ef
fbfc1b1a
3905e1c8
07fb090b
f7eb1016
10fff3f9
1107e6f5
03e70c10
1b24e5ed
101cfbf5
edfa1519
1c05f2e3
24e105f5
15f80004
0ada131a
f2010a08
0bfe02f6
000a1508
21090008
021105f6
17fbecfa
1b1cebed
021502ff
1c27f2f3
ff150400
13110bf9
0b20f403
091c00f2
ff061003
1914ece8
19f801e6
16f6f0ee
05e2030c
f8ff1115
01f11d11
0de70f0a
0ee50215
01fd00fb
13e10e14
02e10f07
0cd90305
02d11017
fde9160b
1be4f306
0de4fd08
0ffcf7ff
14ff02fa
f0f50c14
0ceb0efd
f002feff
f7031106
ec220d12
fd2af1f6
0922f3f6
0123f2f6
fe1703fb
0925f5fe
210ee5e1
1f0effee
060bfc0c
0b21f8e7
ff10fd00
fbfd0300
1618f1dc
11090602
0aebf4f2
050105fe
f3080a15
efff0e0a
2625e6e9
05f4010d
0bf006fe
fc0c0af2
ffcf111c
1004f2d9
1be8f2ee
1714f3ea
00fd120e
2a09eae6
ff1ff7fa
f603ff00
1514f6f2
0f2e03f9
0814fafa
070bf6fb
0d10f7f7
2314edf4
10110003
1413eef7
2203f1f6
1d10fdf2
1107fcf5
02d1141d
01ed140f
f0e51a20
09d8070c
0fe4ff08
00da0c19
0ac70a0f
05d40d1b
19e302f1
15f60702
05eb1712
07f8fa00
15f5f505
11fb04fd
04f1fb02
08020903
f60bfffa
0d15f0e7
1713f5f9
1222edf9
121eece3
1123fff3
190e06fd
2537f0e7
1a23feef
fffc1308
0716060a
1e05eef2
1219e7ed
1b09f3f6
0c0cfef1
00e41915
290ae8e5
f8eb1413
12d00d16
fbfa1303
eff91510
14e6ffed
dde0211c
0cdf1314
fbef1905
1f0ceeeb
fb0fedd1
f5e5090b
152ee4da
0cea0f04
04f50d08
1c22fbee
0d0efdfc
272ce2e2
1630eeeb
1915e9e5
1626fbe1
1a06fd04
f9f51215
fa090305
081af2ec
1c04efdd
05ff0d06
0ef3f2ee
13e1fff0
ffe90c00
11df0f02
0eefff05
02effc0b
09ec07f7
00d00717
13e6fefe
f9ed1100
18cb08ff
02d60704
03f70dfb
03f4fc0a
fbe60315
07fa12ff
05ebff0e
13050cf5
00fe00ef
f81efbf8
e50b0b14
051705eb
0625f7ff
1517f0e4
1b37e1ca
030bf8f4
10f80efc
fa031a13
24fee8f1
08fb0503
0d13ec01
fcf80f16
0beb09ff
f9f30510
eee71014
dae71b13
1108f706
022ff5e8
f6e32525
26f1f9f1
0404060c
07ed1313
26faf7e3
f4da162f
04df0d23
e7e81213
100de4f5
08ed2120
f5ef1619
ff0607fe
2a1de7e4
0004fb04
1ff5e0e6
26f6fce6
060d0c05
030df5f3
f811fffb
0b0bfafc
110afc01
19f1f6ef
0bf70206
0fdd1109
1309ecf9
0fe302fe
fcca0c15
fbe31c1d
0be3000a
f2d4150d
28e2fdfb
0fe60c10
06dcfb0f
f6e21717
1bf2efec
ffe60b24
f4e1080d
e9010b0d
040fff07
1efaeef0
12fbfaf2
060cffef
0a1ef9f0
001108f7
1103f0ec
0df705f9
1f39e5e5
1517f8fe
fff81414
0a12f4e5
05080d05
fbf00b0c
0bed0f12
1a17f6e4
fdd80a1c
0adefd0a
01e80815
111df6f2
12d60306
03fcfdfe
fed31b22
09ea1908
02190af8
0e1be9e3
f21d02f9
0cf30512
13f0ff01
05f7fe13
20f2e3e8
f011ff02
240fe4e1
05041c0f
17020506
fbfd0b13
18e5f50b
1b28e8ed
02f30107
19f50c0d
04eaff18
0c0ef4fb
07f20b01
1805f5f2
08f0fef8
150b0605
1df3fbf5
06df1125
08da0cfb
ffe7fff9
00d70b1b
07d70a02
12e80300
fdd30d05
0a00ff03
edd31620
f2d81412
25dafbf2
1102edfc
efe91413
04f2110f
06f313fd
f4f912ff
e901190d
230200f6
0d12f70a
090b0906
f31f1406
0e09f7f6
0efafa08
19e1f902
2b2be7d1
0ee21107
0ee1070a
0cea0908
11ef0007
01fb0e10
06c50623
1600f0f2
ecee1a23
db022027
01fff1f7
0dd50311
f4d72c1e
05fc0804
20f0f1fe
0adbff03
0dee06fe
f4ff0c12
e7de1f2d
0f2401f6
ffe81921
1737ddc8
22f5f7fa
1a0ee0f3
fe10120b
0f2adeed
1c1100f6
1a0df9f2
03080707
12ea03fa
0315f9f3
f8d21819
f9e21b01
0aef030c
0aee0004
02e62310
f903ffff
fde4130d
fedf1a24
0de4faf5
fad0080f
faec0cfc
19d3f5fc
05dc01f9
06f31b18
15f50207
0af90210
0df1fcfa
ffe7191e
05f413ff
090cf8fd
f6e11204
0d07f3ed
ef0d0d0c
faee060c
faffff0a
2115e9dc
fa1c0a0f
2c19dee8
0bd21317
241ff2db
050d06f3
12fcfcff
03fc0a15
12dcf50b
fcd21b22
ee120205
2506e5e2
07f4f401
f4de1b0b
1de5f508
1a03fee7
1beb0906
fc05f502
39e1e9e4
03ef0a14
efe80e17
0decffff
0ddf0c0d
fde51f16
2f09e3e4
07d901fa
110de5f7
0cde01fb
f92f08f8
1bf5eaf3
f4e5171b
fa06081b
fff6fff3
f8080710
06d40e16
04ed1114
10def5fb
0ed10508
fbeb0a11
fce500eb
12ee11f5
03ef0f1a
edea1a20
0be9160a
f9cc1b0f
05db160a
06d50a11
03f50701
10e01106
0cd60f09
05e1fcfc
0cd70b10
fb2206eb
fce2140a
07f4faf9
191ae8ec
06fa1004
f9f90107
2206faf5
000f0a09
03ee0d0c
0ef70004
2624e2d7
09d9f3f9
eff61605
fb001008
110bece1
2709dbe8
f9f2070d
ecfb0305
12d10415
1bf3e8f8
08010700
f9e9140b
02d7110b
0fdb0c0b
092cfce9
f61af6fb
07011213
f2c01325
0b0500fe
f6db152b
0bf5e7f0
13dcf1fc
2206ece8
081a00fb
1d1502fb
f8010c13
10e701fd
fd14ff03
0ef5faf9
13f4f3eb
1d07eaf1
1f03f7ef
1206f4ec
faf5ff01
24ccf202
14e6fafd
2106fbeb
07eb06fe
10f70afc
01ebfaf1
15060bff
f6c91c29
05d51101
ede6100b
fbd91f1c
01f0fef0
06fc02fb
01de0b02
04c4fd0f
19dcf70b
f4dd0d03
fae9f60e
0effe8ea
1d16f5e2
030003ea
f02efff4
08f1f2f7
07fa03fe
0bf00d11
1a16dfd8
0a00f810
2cecf3df
26e8fdf7
140fecf9
0c040b06
1b0ff2ef
f9eefa06
2bdffceb
0ffcf0f2
3d2ae0da
05d60d0a
1e05e6e8
e9d42419
d7e52238
0cfe0a0b
dff01e28
0f010a0d
0ecc0d0a
e0f4171e
04ee06fe
f8fd06f6
feec171a
32f9f2d8
fff1071d
1d02fef3
13fdeff7
0e37dbde
ecdd1c1b
240be0e2
1cfafcf1
0cfaff07
fdf60212
15f20502
10f5fcfd
251aedd9
1409faeb
2a0eede7
29e9dfe7
21f3ebf1
06e81507
0dd6f3ec
1504effb
0af3100b
13f3f807
0bf106f8
1307ebe6
09de1116
15e7ebed
081becdf
18e5f3ee
20e104f1
06e20003
22cffdfb
0906f7ef
19e8fbf9
02de0316
2ef5deea
f1dc0e17
fce81513
1321e9f4
1102f2f3
1be4f2f1
eefc0f10
0fe002fe
06e7fe06
fcfa0c1d
f3f21623
ebef1216
321cd3d3
1ef401ff
302ee6d1
e20e141e
f10f0d0a
1016e6f3
16e101f4
22dcfe07
272cece8
15e5f615
2f22e5da
f1ec0611
0be90f01
21eb04f0
0ef3f1fd
f8e70e0b
202fd4e3
f7fafd16
3118dbdd
faf7020d
3c2ddbd7
e9150a10
25ebf7f7
f9de0b17
1109fb0b
f5050107
0df4020c
3113dfec
1bf5f6f0
22ebf402
290ee4d4
0cd11107
27fbefeb
1aefeae3
10c303ff
0004f30a
1e19eceb
07ea0504
04e5f1f5
0bf0f1ea
1a0df0ea
2908e2e2
1b1ee8f5
07000004
1005f4ea
22f2e5f1
e7f4ecfc
15e10401
1fecfff9
0c10eaff
03f41208
01de0811
fbd10b19
f2ec0d1b
e6f3161a
08fcf8f3
0e0205fa
fbfb060a
fcf7201e
01e40f0c
0e19e6d9
14f401f0
09f20f01
15f5faff
faf01020
1ffceff4
f3d92b2e
05fefdf7
13f0f802
20faf5ed
fd11f8f9
1aece9fc
03e10611
1a05f5fb
07f70903
f9130d04
12f003fe
f3031917
0ee2fd0f
3513dddb
22e5effd
250bf201
16fbf2fb
25fbe5ee
0ae900fe
0336f0f0
0ddff902
1c22efe1
21fdedf0
28daeaef
1a05fdf8
f8f60005
fdf3ff0f
0b09ebef
29f5e8e2
1cfef7fa
0813f2ee
11eceff4
09dbf0fd
2107e5e0
1ce2e6f9
11eaedfb
09cd100f
12d5fbf7
29f0ecf0
09f1f301
11f6edf0
10dcf2f9
0301fff5
181feeef
f1f30c22
041109f7
09fbf0fd
00010309
17e0fbf2
cfcd2c37
0801fd00
1318e0ef
fefd1312
01f6050b
1d06f1f7
11eff2f4
fdd0111d
04df0806
0010fef5
09f3fe1b
02012212
21e3f426
17f00306
e9fd0824
0e0e1606
0bf2ff5c
0d050c20
19e4e037
1b070429
3bedea0a
2606fef4
0df71b11
0a000a21
2bfd081c
14fd0712
1de0e145
0000fd21
12edf2f4
0bf8f52a
06f21110
1ef508e9
01e9ebed
0bdff31c
f8e2e131
12e1e833
21f7f619
1df0ed0c
fee2ea40
00f4ea1a
0500e107
ff04f317
0bf5f600
17fbf513
0a0402fe
3edfee27
2500fd0f
27f6fd40
f10a0ed5
0df615fe
25fe0b2a
3df71d03
11eefd1c
1bff15fe
e905101a
ec000d12
0ff9fb29
15ef05e6
1a050822
eaf71b16
06f710ce
12e80625
3cef020b
26f6fa23
321efd12
01f0ef32
1805f914
fb090802
11f21a16
e91a02f1
03faf115
0deaf6fc
34f4054c
140d2204
13f7f0dd
f4fbf72b
25f50f34
ffe81034
18e9f22c
ef26ffed
2af1eb31
030608d8
08fce104
01052ddc
ecf51207
140a0be6
2f050a2e
16080307
0cf909e9
06ebf0de
f90201e8
f8f8ed24
29e3e72f
1ef1e6f0
18dcfb1e
03ece913
26e6f313
200f07d8
1ee4f815
20f2f820
19e8ea13
06ddf858
18f9fbf2
08f7f410
20f50518
09e3ef0b
18f80734
12e30421
06e7f9ce
2df7ff28
fc05032c
08f60414
eef50d19
24e8e822
09edf91a
09131aed
fffa1632
ed1605e2
ec0cffda
1bf5f21b
1a080afa
0bf10811
1cf21b19
35f1031c
00f6111f
01091c2f
f303040c
e9faf915
ecfd0bd8
feef0b11
28051604
2de50823
fe1019fe
fdee32dc
18071423
2f06eb02
f01115da
0c0afdd8
04f00033
f5f6180d
0bf5055e
12f636fc
0be40f41
17e50524
23dd120f
20fdf8f9
31f1f44c
03e1e42e
28ee1d15
00fc0520
f7fd0603
0909ebf9
21fbf506
05fe07e3
20ddf023
08f2fa27
1df4020d
3ce7ea29
f7dcff17
ff02080c
00e2001a
f7f1fe23
07e9f40a
14020b1c
11eefdf2
1606f5ea
0ceaf718
020e0601
04ef2c1d
0eec0d06
05f6111d
17fb0126
fdf90707
0efa001a
10fef806
02fd0c0e
fbf7f510
15fa053b
15e01223
1ee5f619
14ebd3ef
1bf3082b
13f00c0c
fffa1318
03f9f310
0b08edf1
28f91914
301012e1
04eefefc
1907f7f4
0deb0613
1ffc0a19
09fc0910
10f1f80d
1cf9072d
0cf10208
05ff0ccb
fd030501
1de8eaf9
2102071b
1c1310e0
25faff14
10f40a30
2a0c2fe4
0decfd07
22011d22
16f1022b
2ff80c5e
180128d1
19fa03f5
10fdf602
0ff4f852
12f303f0
2bfe09f0
16e7f818
35fa0315
3afff9f0
fd1715e1
06011be1
22f2fe43
02f806e4
fdfc0629
16000906
08fd1afa
20ff1506
0bf30b1d
ff0626f0
2ff91406
ea2839f4
11fd1e10
fcec1917
05dafc1f
02f01535
20fafcff
0cf4082f
0206050b
12f70a2a
fce31a08
0700333c
f0ee0231
08e80531
28f115fb
f005061a
28f90c16
11daf21b
f6f9011a
28071b03
1bfe052d
10fb0a28
e6fefaea
040823fa
0fee0139
faf3082a
05051b24
16efff00
20f5f040
22040c0d
03ed0819
14f9131b
2ffe2731
f51aecf1
1cfe070b
f1e10b19
ff06070f
15f4f50b
19031101
16fb2313
2bf4edf0
29edfc17
fceafc0b
32fd1ec8
11f200f2
070912c5
160c17b6
210a1cce
01f30bfb
130d0be5
fd0d0dc7
1ffe0bff
1f16340f
280d0ec0
26090c06
200a1bea
22070ede
1201201c
1c061d14
2d0528f2
1c171909
fefb1f34
1b001222
20e30e24
0b001420
08e12833
f1f0ff24
1fee180e
1cff18f3
09e61211
04f80005
23f9f130
02ef1c31
2afb0f3e
1a04f108
0d1224d6
0dfdfa18
06f50320
fcdff416
f5fe1115
2108ebe5
06041f03
16100a29
f7e9ef0f
33f1174a
082107fc
0d191ceb
13f71e09
0eed084f
00fa09ef
1b062f03
1fec1c54
1b0719e2
f2fae7ff
030513f7
110806e6
12fb12f3
3de6f9d3
0afc0fc9
2be91411
15010aca
f7de18dd
08e3fa16
34e11111
2bea0a9e
ea0907ca
12ed02fd
121c17b9
15fe1cdf
1df31804
0bf61307
18f41c10
0b0328e5
090e16e9
12f817ec
020a25e7
1eff1d0e
1a062ecd
1f040f0e
0ef81e07
15f92232
200a0f32
0dfa1006
11f6250a
10f5f51e
17ed081a
0c001505
e9100cec
02040015
f8d9f335
f6f30c23
100d1c23
fee9100e
fcefec0c
22db1f3c
28041020
11100ef8
030bfbfc
0b0908fb
1d091224
050202eb
1be9e21b
fd1114f5
1be6e81a
1ff10e50
0efe000a
30f9010d
2deb2e1e
13f81d08
0bfdff37
0ae7f40a
10ee0341
0f0404df
f4f1edc2
06ede73a
19f5e7d9
05f4eb2d
0ffd0a1c
08f3f4fa
06e90f2b
2edf1416
14da1a38
19fe02c3
04f810d6
0f011cee
0ef00be4
160d21b3
09ee11f3
21f11de7
1cf319ed
1eed22e2
1a0d3dd6
190c2ae4
11ff27e2
17012409
04f821e2
18fb29da
110607eb
170209f5
ff1313ef
27fc0ee8
fffc0dfc
0c1a1ae2
17f31d01
0903111e
fd05020b
ff0c0e08
fdf50c1c
12e0fd25
f5f6011b
f3fbfa0a
22042a03
f1ebed1e
faf30424
12eb2f1b
fce8fef1
0c020507
17f5ff26
0f06190a
fde40c17
26f60e03
00f2f30e
ee1813de
1cecf80d
2a07fbfc
050703f2
f00df2eb
33ec082f
fef4010b
fc11011b
22f427f5
07fcfc21
f809f707
14f2f703
f101e530
03fceb16
07ea0c24
09eff122
ff10f8aa
f80507db
fcf6f400
05fb0b01
13fe10ea
110304c2
0bfe20dd
0bfe08c3
13f912b6
1a0925e0
19f826eb
11fa16e3
090121f4
13fb2afa
1df42ded
0c032208
12fe2ee7
21fe07f1
27f825f9
0f0418e1
0df40d04
10ee19ec
050c27fb
17091900
010c19f6
fa1618d4
f1f50b1e
0a021afd
e4fb0812
fcf7032e
0cdbea3b
fefb0629
03f10120
f5ece224
11f9fe27
09ff0208
2802f7fb
0bf41331
e60906ff
12e3f503
31f12214
0aebf900
e804fc01
0fee032d
1ffd0bf4
1ffa164e
1bfe1131
feff1804
2ffff7f3
270c1828
1110e2e8
09ee0343
20fc1832
0fd30220
00f6e23f
eee8f2e9
fdf3e237
efe2e50f
f2ebecf4
eceff9b8
e80d01bb
f5ff0018
e70dfdd2
040e0cf8
15f714b4
f80716f6
02ecfed7
1c0808e5
09130cbc
17f107d5
0af817cf
13f92ce7
23fb2be5
17091ddd
1d0b2504
12f41b05
06f919fa
1dfb0ff8
23f223f7
1ef20afc
090e19d6
0c0c18ff
120d10f3
fd050be4
030f20ec
fb071a02
01fc0705
f6f90c0c
f70c1004
f6fa0e17
00f50316
0101fe0c
e8e9f931
fff4fd27
eff6ef33
07f6000e
020afd01
1be8f136
21ecf135
0ae3e949
0bfa0ccb
10ea0f10
10fe14f1
fef8ed21
1afd092c
2515fd09
101f0ad8
1bf40dfd
2eece61d
10eb0e13
f2e7f431
f00801f8
f6f5ede4
f8e4f31c
f9f6dbe6
ef06e314
eef5dce0
eeebe005
04f7e7ef
0bfcfae8
03fa0cd3
e91d12cb
f008faf5
090919f2
f70bf1cf
10f612f6
fc0d079f
1a0a19e4
150614d2
151616df
170929ba
190d1aee
14f712f2
0aff25cf
170a30ce
1cfc18ea
17f833ec
15eb2cf7
12f729f7
10ec1601
09051d0a
12122f0a
050c19fa
05111cfa
130021ff
f2131afc
12081ffc
f2060c12
ebfcfe1c
f5fe092b
e2f6f73f
eafafb1b
e8eede2a
f1fdee1b
e6efea1a
e4f8ec0a
f8010037
1ef715fb
0104fc1f
170a0237
0ef41323
2502f1ea
04121cfc
2aee0b48
1d0a0a18
22f21600
1ddf0417
1eecf01f
2002ee07
ff072e1a
0af8fd31
f107e70b
08f3ee52
09f4dd00
fdf1e9ec
06fbe6e4
faf0ecd4
f1f3edcf
fffe04b5
ea0301d7
f6040902
e1fb02e8
fe1012cc
fafe11ed
18131bde
f81106e3
fcfc08de
fb0812d9
1a1717d7
200007e4
f30810e2
00fe0be1
130105ef
f10113df
120918d2
01f81af8
fffc23f2
0ffe14ed
f9ec1cf0
0df7130b
0ef822fa
120f1bef
12ef1907
05051c04
091122e6
fe0f18ff
03021511
ef050c0e
f7fd1636
05ecf33b
f7efea55
faf50415
dcfde628
ebfd01fb
e3f6e11e
eefcf60f
ffe8f303
16e8f455
f3f20a0e
17f01030
0a1b0c1a
00141edf
1e02e716
0d09fdfe
10f21506
2bfef6f9
23f1110e
f20a0f26
eb130e2b
271a10f3
26021005
0ef5ef1d
11dff130
0605dbe6
00f4e7f0
e6e8e8ea
fb0fe3a4
ecf502cc
ebf8f8cb
fef3f0f6
0c020ffd
fc0d04d1
0008ffc6
0a0c0ef1
fe1600f3
0b1807e7
000102d4
02ff01ed
f8f91bf2
f90efce8
04fe1bf3
040322f8
110714df
f41122d9
fc0c19ff
f9fb1cf6
f40e24fe
f00015e0
f1f213f9
fb0113f9
0e0d21f1
12052de7
f8f91e03
0b0f1efb
030d24f8
f9fb0dff
f7fe160f
0eef1d25
f4041b1c
11f31020
f8fa0719
f4ff0029
09f70619
f4f1e809
ef00fd07
ecf2ed28
d9f7f020
f8ecf114
07080409
fe0007fc
0cf7ef2b
0cfb0ff0
24e20d08
1bfa0414
ee180be5
1305fa3b
1619211f
00f6032b
0207f61b
eb0304df
1bed12ed
09fa0023
20ebedf4
e2e5e30f
00f7e10e
f108eadb
f1f0e7f0
ee09ecdc
f5fcfddf
02f5f8fc
f7ff03c4
090e0bcf
060611e0
fb0503e5
fcff0adc
04fbf701
070205f1
00fd1ecd
fa1703ee
f6171bea
ff0e1fdf
fe051ce5
f10711e2
e8040ed3
ed1203ff
f00314f4
00f710f6
f20314f2
f50c0be3
f0080af6
f00e1afb
090b18e1
08082b04
fcfd2ced
06011aff
070d2c00
01072706
0309261d
11fa141c
08040419
09090c19
f705ff0f
effafa26
e3f3f414
eefcf809
f5f8f20b
faf7e31b
fa040d0e
12f80e13
010113fd
0dfafefa
1bdcf719
0de11323
fef3fe0d
1edff551
36fa0d40
0ef9ee0b
1efd00ed
12f3f355
20f1f003
040dffe9
f5f8eb29
0bfbfcf7
f9f8f3ea
f6faeeee
070300d3
0301f7da
09f508d8
f8fcf6df
0b03fedf
fe0913e2
06f603db
0a0206d8
fa010eeb
000914e0
02fe0ada
fd0f0acf
f40012dd
07070af1
f11b0be4
e91508db
ed0fffe4
f6080be1
e4080bea
e11c05ec
0016fffb
fe17f2ea
eb07e2d8
e708e4fb
f30b03ec
03fd0aeb
02080ff6
fd1011f3
eff71c03
ec0c28ff
070e1c0e
f91727f7
f0fd2107
fc003003
0e0a1516
07011603
f8080814
f5f0f03c
ec05fb1e
fef3e334
e60af313
f5efe721
e707fb10
14fb0d12
1afd050a
2f041e0b
12f61126
0df8f7e9
2bf41e30
34e5fc1f
0efa012f
0fe5f40c
15e3f430
1fef141c
37f40afd
17022008
0df9fd43
0df70632
13fc0c0f
0c0c02f1
f5f000fa
fbf4f3f1
08f8f4e8
fbfc0be2
06f50ee9
f60208e2
03f801da
0b0915e4
050c10e5
000613d2
09fb0bf0
f11008e7
090f05e7
0a051ef4
0e0b1ae5
051013e7
000707e7
000c01d0
ff0df0db
f01af8e2
000ae1e2
f404f8ef
0204ecec
fb0df5f3
ef0ce8ea
ff0ff5eb
f907f5f4
e70f00f8
fe0606fe
ec0d1a00
fff61313
f8132101
f4031618
f111261b
0205290e
f00b100b
01181f15
ee0408ff
14f40b12
f9fff122
f408f31a
f600fd16
ededfc0d
19f70234
11fd0419
22f90f17
0bfd0711
170c0c1b
30eaeb1a
120e11fd
250bff09
17f6051c
0dfb0ef3
0afafc0c
1bf1120d
fbf4fb1e
02ef0cf9
031316f1
f5ff0c08
ff03fd0f
060b0ae5
ebfeeddc
01eef9ec
eefef6cf
f90dfdf3
010505f8
fa1010df
08010fdc
0f03feea
050a02d7
060c0ceb
050c08e2
fc0c23d6
031411d2
0f0823e0
01070ae4
ff12f3c6
fd04f9d5
0216eae8
061ee3c7
0009f6cf
f21af9df
f20bf1e8
fc0ef9ee
ec13f1f6
f118f3e1
ee08ecf6
ed0eeef1
e6040903
fb0c0010
f3fb0f0e
f30d0ffd
040d1201
ec091b1c
f30a2916
02102c00
06022120
e706131d
f7080f1e
f7f9091f
f3fdfc1e
f8fb021a
faefe528
fcf00121
2efe1531
0af016f8
2ae1fd05
23cd042c
2de2e604
0fe5f01a
fb21141e
0a0b08ec
fd00f3f7
f4eef244
130c0dfa
0efae501
f4110304
f402040c
01f916fe
0600080c
00fcfc2a
fbf701fc
0bf908f5
faf4fef3
f7080ce5
ff0801e2
0b0d0ce7
f20606db
ef03f6f0
000c01f3
f4150fe2
061318e3
021b1dcb
0c051be2
070d07d4
fc08f4dd
0310eede
fb0b02ee
0416e5d8
f50cf0e0
ff09edec
f309f9ea
f60ae0da
050dd9e9
fb15e8d7
fc00eade
ff11f4e1
f110fee1
f20dffed
ec0af20a
fb050312
fa0efd1b
f200f721
ed0c1317
ee010c10
e5171b15
040a2209
e70b1b15
f1061a32
e6fdfb33
e30af719
f8040922
08fefb22
02e2ec16
24e7001c
21f40a07
1801081c
f70afdec
f3f5f605
f8e90505
37fb1d12
f00ff9f8
0afcfd1a
04fe1027
20f2191b
fdf30602
f40ae6f9
00f9f111
f801eafd
eff8f507
0c13fffb
f50ef9f7
fbfcffec
fe090dee
021105e3
040907d2
050612e2
fd16ffe3
0315f9e3
030c09e0
050817e5
fc0a14e9
02fe18de
050a01ea
f604f4e8
f3f7eeea
030104d8
0510fadd
fe0af2e3
0110edeb
fffeeaeb
fe04e3d2
0707e1cb
0013cfe6
0923d7e8
fe15e2f5
fe03f1f2
e611e7ea
010ee905
fa0ce40f
fc08e326
f412060a
e80b0c2b
f709080a
de160a11
e9171807
f7121f0d
e802170c
e3040012
e9f10925
f5f2fd17
f10af815
00fdf70b
02fdf023
0ff9f21b
1dfbfb06
2af90e08
29f5252e
fbfee209
16f7f900
3cf805df
26fc21e3
1bdff93c
11fcfeda
28f71a26
1bfb0a05
fa0a19d7
eb020afb
f20d0d07
fa0809fb
f617fbf1
f50c0ff8
ed07feeb
091012f4
0a0906e5
f60518d6
f409fee9
0303f9ea
fa05fbe8
fa170ae9
f10109e7
ef0f14e3
f90907da
f1090df2
f90106de
ea09f8df
ef10d8e7
06fdf5e7
0d02f3e9
090bede3
140cf6f0
1007dd00
0f16e0f0
0512daeb
0b06cced
0e16d6fc
0409d807
ed01d9fd
f80cd210
ed04f414
f510e018
ed12ea16
e611ff14
e2010818
e6150609
ed061e09
f702110d
f1021021
e8ff1526
eaf71834
e1080f19
fff7111c
09f50719
0ce7002f
1bf7fb18
fafe0711
13fbfa09
0a03f2fd
28e7f04f
01e71011
1cf7f6ff
f2ebef36
1003f817
1cf5080d
06f6180f
ef110aea
0e001701
ee1215f0
fe0b0e09
0bfeff39
fc15f500
fb0f0dfb
fb0b17e3
f80006f2
030618d8
030d19db
0a040be8
0506fbe9
000614e9
f70012f3
e80b26ec
f9040eec
ea1408d5
e516f7e3
e609f6f2
f804d903
060ae3de
15f8d9e7
1309e0d7
1cfbdeeb
1100cceb
100ed1e3
0d03e4e8
0706d1ed
0b13dbdf
050bd5f6
f411e7fb
f514f108
f112da06
ee03d909
ee12f913
f310f60e
e409f116
e1070116
ed051514
ef062020
fbfb082d
f301131c
f1fb252e
e8f71b31
fe06230e
10f41619
f0050f25
0ff0051b
0dfbea29
ff07030a
19f9fe0d
0feb082f
2dfaf233
0f15fcee
f4fa0b0e
1afbfb41
f61308df
0b1e0cd5
04fa201c
16f70734
06000dfa
0c0d0de9
03121b04
13ee010d
fcfc0815
1d150609
0c160cf8
0d0e14ed
0bfc14e1
ef171ce7
03000ae8
f40a0cdb
000507e0
f20710e4
e8021fef
ec0e0cf2
031109f5
e60bfbfe
e412ede7
040beae6
130bcbc9
2900def3
2911e1cd
1c05dee3
1e06ccee
fbfdd6ef
030ce7e7
060fe4e9
0520e503
010bf100
fb08f202
fbfaec17
fb01f02a
f604f924
00ffe719
e90cea1d
ee10ec16
ee0df81c
f005000f
f7f70923
f2ff261d
f20a1617
e9f71121
f9031141
0cf31b14
0105250b
04f60b1d
03f11919
0febff24
190a111a
1f01ff01
12f3fa0c
09080119
00f8ea24
20f41548
ef06eff4
2eff17d8
24fa0940
22012cef
0df50efa
f7fc1411
00141ced
19051012
15f71227
080e11fd
f9070f03
09021600
070710ef
f9fd03f2
01fbfae3
020416f3
f705fde9
ec0414ed
e70221ee
f00017df
dc1301dc
e5fef9e7
ee15dae0
030ad2ee
2302d4f5
150ad5d6
2704c7ee
1411dcd5
0bf7dfd8
0709daed
040de1df
130ddcf6
fc08ddff
f6ffdc06
ed04db00
f105ed11
f808f00e
f5120920
f00efe0e
ec05f51a
e912f11c
f21bec15
e313f81e
dc08f91d
f311191b
f1f51c27
e4f6231a
e8ec1e1b
ea05111f
09fe2811
03122405
1b031c2c
06021514
08fcff06
0f03080f
27f20f45
10f6f80f
35ee075f
1509fdfe
05fa0314
f0ff00e5
1f042729
19f41219
1bfb180e
00fb1706
03ea183e
14f01e05
1a0702f0
11f10728
ff0306fb
0f061f09
f3fc081d
f3040ffa
f0fe0aeb
f4121bed
e8120ce3
ef0813df
e50e21eb
e70906f6
ec00fff3
f100f1d4
f818f1ec
fe0feada
0511dbc6
0f00e0eb
02fec6d4
0afdcee2
15fadbc6
15fae5d6
18f2d4d2
16fde310
10ecd202
12f6e102
fef6ce09
f8efd926
ff050317
de08f806
fb1bf217
fe020020
df08f218
e313fe32
fa0cf12a
ee12e81b
e917f317
dd021614
e8081721
e9fe1a20
e5ff2521
f6111b13
1607290e
040b2312
ff041bfb
07fb1214
02ee0420
f3ff1800
25150d0d
0bec0c1c
0c0ff62a
13edee0d
25ff0218
fb070f02
f5fb1705
19f81529
220631e9
22021524
0afb1415
08031002
f6041deb
f30411fd
041d09dd
f8071b08
f20f0b01
070b140b
f3061514
f3000fe9
f21bfcea
f00215e7
f60c17f9
f61000ee
fc06feea
eb0bf5e0
0407e4ca
1616dbeb
210bd9d1
0effdac7
1701efcf
16fae8df
1df6fadb
1eebec05
ffecd1de
18fbdcfb
1dedf10c
14eecf14
f2f6e325
f602e30c
f903dd05
f109ea08
f00df311
f215ef19
041efb28
fb0be226
f410ee0d
f714d712
e109dd0e
ec18f50a
ec0e2014
ee082918
ed142618
ee0b1d0e
06032919
10092c0b
ff171202
1c1021f8
18f81e36
23e3eb27
090b0717
0ef8fa3b
22fb0b03
0cf2ee35
1ae3f50c
27e5f331
11e50525
0ef40a2d
03021be9
2303101a
19f81ef2
1fea0e10
fdee162b
0c0901ff
1bf71102
f007fb2b
f2f8040d
02001215
fa020403
f713f3fd
e90bff07
f90b0bf6
f91308f8
f8fff201
0310fbee
070adedf
1c0cd0d3
2bffc7d6
1805e1e1
22f3f5f1
2cf0e6ce
01f9f2da
18f5fded
13ede7f9
14f6f011
1afbf91c
1ef1081f
01ffe443
09f9eb2e
0604f01c
ea05dd22
e6f3d51f
f21ced18
f902ea2b
f9fff43b
ff0cf935
f31cec2b
f50ee42b
e60cd915
f205000f
e30f071e
e61b1c18
ed082a1a
f40b3016
040c2713
0004160b
06101a1f
ff0c2afc
13062b04
0807fe0b
21f0172a
12fcfe09
f7ff00fd
0701e24c
1cfafced
0803f824
02fd0810
11fc0d33
23eb210e
1ef00c1a
190e2607
15002604
0eff1716
0af8060f
13fb0804
ebfe000f
ebfe120e
eb0afd04
0314fe07
eb1b06fe
fe1a02f9
01020a01
f814f40f
0801e4ee
000ae5f8
16efd2fc
180ce4e2
2cf0e7ef
32efe9eb
23f8f1ef
28f1fad4
10eef4f1
02e5f4f6
01f4f408
0ff1e21a
0eebfc59
18e2e32e
0beaf23a
0bebf543
0de7da2b
0dffd442
ec02e130
f911d333
01ffe730
0e0afc47
f4f9ee4a
030ff228
040eec27
fe10e11c
fa0fde2b
e213fb0c
04081023
f3180b0e
f814110b
08052412
1a001d0a
22ff2723
110c3411
1e04270b
0ff91216
07051118
14f80a1c
07050910
1ff5fc3a
2aeffe30
11dadd41
21f1f10b
14fc0f2e
14fa3906
11f30331
28ea0a16
1ce71627
22e80c37
12ff171c
08fb1111
02071612
ebfe0601
f00ffc04
fe17e6f2
f111fdf9
ec08fdf7
0212ee0e
f303f9fa
fafee709
fc0edbff
3104dde4
1b08dbcf
2df2e305
38eae1fd
28e3e113
31e9f607
fff1fdfa
0af40427
1cdb027f
02ec1cfe
1ae5ff23
18e6fa7e
1af1f826
06eef223
1fffd624
fdfae72c
0bf3e22d
1314e73e
01fcda3e
0ef9e841
14ffdc41
ff07e332
0207cd13
1104d111
f21fe50c
f7ffee1a
f00bfe07
e80f0a0a
010f2022
020a3116
08102814
18031522
1609142a
1f002021
12052318
2df6f72c
18fd032b
0ff4e40f
f7ebdeff
34f4fbe6
13edf032
08f8060a
01ed0d00
20f62d0d
16fa0c10
18060d03
22ea0d38
10fa1707
21ef1128
1bf00a1e
f7f6fa17
06100401
f0130808
0005030c
f414f1f4
070d08e7
f70bf305
fcfffcf2
0b08e7fd
0c04bcfc
1f0cbfee
2207f1d7
2cf7ecf0
23fce6dc
19e7e1e7
27ece429
1af6fa3f
17ef032f
21ecec09
09e70912
1defff1a
21f8f82e
1bf5ec0f
1af5e118
1ff8f121
0be8f438
26e7d444
1c04d432
1605d136
0dffe250
0e0be139
f10ce016
fe09df0f
0c14db12
ff0ee815
ec15fa15
e40ff313
000e1214
fb061b19
14f92531
1201231c
16f3223f
0ef5253d
25ee1727
13040d16
1bf10b18
0ff3ea06
13e7e038
1df4e22c
07faf51b
21eaf75b
170304df
1502252d
280636fb
2c052306
0f0812f4
12e52040
fa082100
1a0627f5
0f031dec
07ff0ff0
fb090a01
fc040307
f41bf7ee
f709fff7
0b09f6f7
fc15ffe9
0e0efffb
11f7ddf9
041cc8ee
0e0fc5f8
0cf2e5fd
0ef3effb
23fde6e3
17f7e414
2eecf327
28e9fb1c
29eb0a1c
1ceb0726
1bef0613
23f0f339
2ae4e34a
1bf8fb32
16e81632
1cf2f03c
11ebf63e
17f7e439
0b00f717
190ad342
061aea17
0e0bdf13
0810d119
fa15e013
0e13d113
0020f204
0414ee13
0b170a18
fd060a21
05041d27
06042a1b
0b092441
23f62f3a
0e0a1b2f
22f61e30
0909300a
0c01061d
07f311fb
17ee031d
00e8ed2d
22f0031a
0edeec59
22ee0e28
fef71304
fc0b2ce4
13f32033
0af91cf1
13072206
21fb2434
15020c1c
16071408
11fd22f9
f7030c0a
0315070d
0307fafc
ec10e2e4
0311edf8
0017f0f9
0503ec01
0102cbff
0e0ad0fd
22f8cc0d
0cf2e7f8
16f6eb20
13efdf04
0beae6f3
18ea06ff
16f50614
11e8e54e
17f3076b
25f7f263
20f8ee5f
19e7f624
16e6ea22
03e4ee1d
11f7e81e
feeff831
10faea26
0cffe71c
10f7d430
050bd221
0cfcd31c
0018d21d
000ce10e
f621db08
f813f20a
fc20ff06
f60afe26
0e08081e
120c2c29
11022f23
25012948
0df72931
1200102e
ff032812
0b043300
15020f29
10de0441
1af5011d
04ebdf2c
2ef0fe4c
11eef90d
30f8fe2d
25042414
0cf024ea
04fe0203
0b0c1804
22f81a3c
09fb162b
11f31810
29fe0913
0bfc17ff
f7071bfc
fd1dfffa
0c0ef9f6
0218ecf5
0307ebee
050efffe
070fe8f4
100ee202
0c08dffa
100ad708
1100dd30
0bebe43a
04fa070e
17f2df12
12ebe577
0ef1fa11
16ecfd1a
19ef0b4f
2cf6ec56
19e9080e
18fff510
0debfa28
09f80019
04f70427
08fcec1e
0aeef31e
13faeb30
0efdcf30
fdf1d21e
f908d921
fe06cf12
0706e51a
fd13da01
0a13ef07
0a1af20a
fa1afd2d
13090f0a
0d000c23
1ff5292c
0eff3026
050d361a
07f71332
13fb2e19
190b1d16
16f71047
25e70327
2adaf94f
1fee0422
11deed37
1fecf526
01f6ef1e
13020927
15081617
24fc1601
1a002712
0d031122
0ff60b1d
23fe1919
15fb1920
1afb1532
f40e0b0f
021b00f3
060feee9
fb07e4fa
0e07ebf6
fb13ee04
130ae2f7
16f8e9ff
17fed708
fdfdde16
17ecdd11
fdebdaf9
07e7e822
11e5ee27
19f1082d
18eeee4f
1be8f81f
2aece959
20eff12a
1dfdf628
25ea1021
1ce9f30c
19fdfa1e
08e9fa10
04eb012d
0cfafd1c
0e04ff0f
19f2c00d
0000c53a
f9f5d724
05f8c62c
f600ca22
0414e518
0d03df07
0121f605
f41a120e
0e041518
03ee1927
1a0f330b
1dfd281e
0a022004
09f91b0e
2ce62745
16f0302b
1cfc170c
19e3083f
19ed0d01
28eefd18
2ef6f026
3ee9f335
0df60e17
21eafe0d
27f1ff15
f3fe0ffa
21f71c1a
200b1e22
1e03170d
16ff1313
23fa1635
f707070f
f911190e
061efb10
0f0ef9fb
0509edf9
fe14f303
1114ec0c
1709e5fc
0ef5e010
1d04e60c
00f2e420
00e4d618
ebffe916
00e5f024
19f0f139
04fdf461
11f1ef65
13f20546
02f2f133
23f80918
25e7fc38
1af60312
28ebf71b
13f0ee0e
0af4e31e
0af0f625
18eedd03
0bf3d203
0df2cc23
f7fbd236
ee0ac92d
ed04e226
0308d816
0119dc0e
0a07e710
170c0a07
13131322
080e1415
0712140f
2cfb1e1c
22081b14
1df0283a
08fe0f3c
2bee102c
20f82a4a
30ea2726
1aee0d54
1cdeec61
e9e5e927
0ce2e503
14e6fd00
04fb0a23
15fc0526
0a0715f0
1b0a0a1d
18f62b06
2bf82923
0e052121
19f51904
2a072204
0903150e
f30e1307
f908f4fd
f90df406
1016eef5
1306e5f9
0a06e8fe
0e02df0a
0c0befff
0af6e5ff
0003e712
07f5ff14
fcf2db12
edf0e816
00e6f12e
0ef2d425
19ebda42
11f0fb33
14ea0630
0ffb0711
0eeff012
29edfb09
14e90719
32e9fb15
15faee0d
1df2f922
1dfcd208
0f04d800
02f3df00
0ef5d20d
06f4d60e
f907d406
f8f8c512
0f01d31f
0606e10c
0a0ff700
0b1115f0
13031010
23f9171a
14ee2e2d
18f41313
19021d0f
20051030
21f6111c
19ff2828
26e80844
f8ee0321
13eef32c
13edd527
15e3f05c
0df70828
36f40c23
f6fb14fb
08f40b2e
040611f4
17fa161f
18001d1b
210a1b1e
23f82412
14ff2516
1a0c1b0c
f902110b
fe000112
120212f8
fc05fe0b
0a14de07
1207eefb
0513f8f6
0508e609
1709e300
100be80b
ec02fb03
0ae4eb20
f7f4d927
f7eefe44
04effb47
1ce7e760
0beb1745
07f7f230
0cf7fa14
1ef5f337
2bece227
26f2f40e
06ebf421
1beaea29
fdfbd315
0dede807
0bf3df0d
1005e501
0bffd4f1
f20cddf1
fa07daeb
0109dd05
0311ece7
080ff1f5
160e0203
1d000d04
0d061009
170b1b00
21013307
1e0d2918
0ef92322
21f51e3a
10fe1924
1311282e
34ef142b
feeaff1c
04f7ff16
29ddea54
09e8de3d
0debe445
18f30b40
08f30821
34fa1b15
100433e7
0a1f35d5
0b0a2505
19082a1e
0cf11e11
13022511
1bfd1709
fe0b23fd
0c161200
101005f8
f01103f6
0e16f1fb
0315f7f0
fd0eeb0f
090af20e
0711e50c
0006e213
13f8f81d
e3f8f426
eff7d730
eae5ed38
e8efda47
05e4ce4a
17fcde1e
07f1e73a
0cf8de08
1df80226
20e6e024
11fcfb1d
0bffe71c
18edeb23
05feeef1
0cf2ddf3
0df2dfec
02f2daf6
feffdde7
f8ffcfd4
0112d8e1
f613ecea
070aeff4
1107fde8
070f1ff7
021c16ea
1d010702
25f01a01
160c35fd
19ff2508
09022909
07091c2f
020b12ff
05fd19f4
ff062c06
f40f08de
2706f60a
0cd9f41d
01ea001f
13f4ee33
28030e26
24ff0035
f8eef910
06fa02f3
0c0114fd
11182d05
1df5232a
220a25f9
0dff1f0d
12111c03
06010bf1
01070c05
09220902
0b0ffefb
0908f3f6
0008e9fd
0a00e707
1b08e20a
0ff7f10f
ff04e20a
01feef2a
ea020037
efecf434
e9f7f02d
00f6d939
faeae12a
03f1c91a
0fe6e037
05f2ec2a
14f2e925
fcf1d21d
0cf0dc15
16ecdb10
03fbe903
f2ffe8e4
0c02dce1
0602d6e8
01fbe0d2
f6fcdcc7
f205d6be
fc09d4d3
011e00bd
101607d8
07150de3
01160ae1
1a0729f6
1a0d27dd
17f92bf6
22112af0
1d141ef0
0ffe2715
01092c28
11f31bfe
07f71f0e
310233ef
05001ef2
2ce30b0d
25e4ea35
0ef8feee
25e3fc34
37d7f032
33061017
21fa1c2f
f80d100e
1df41e0a
0e0d120c
1d153112
16000b20
29fd1c08
ff0b27e6
081122e3
03fc0e11
0b101003
080f0ff3
000dff04
15fef403
0b04f514
0e0b03fc
fe04f71c
f609ed15
f5130406
ea05051f
f00cf826
e904f117
f6eece2c
02fbd348
fbfbe227
ffebe529
00ebdd29
f9fdfd0b
03edf31a
1afff01b
f5f7edf2
04fedef0
f9f3e5d5
ff09d6e2
f10cdcda
00fbdfb4
030fdea8
0712dece
fc15ffd3
0f15f2dc
110b03da
0914fedd
110711ee
0c1524d6
241031ee
1d0414f4
1f101bf0
210a24f0
030718e5
1b1525f9
0ef92ae5
1bf023f4
26fa1be7
1ae20239
17fffce9
09eae7f9
15e4ff38
02e6e71a
22e6012e
f7f00308
2ef7192b
0807160b
12f40d2a
110013f5
19fd160d
0e1024fb
0cf41ad0
0efc2903
14081612
04fa0d13
0cffff16
080ef505
040de511
0810f91e
1116e80b
0f04ee10
ff060a0a
0614f60c
ed050c00
f513f61d
e614f912
fd00e729
f7fdec24
01eeda2e
f801cd08
0500db21
0cfdd315
04fadc07
fef3d020
f9fce4f9
0af9e10a
f004f4fe
0bffd5da
fe0fdead
f60ccbc1
0a0dd1bf
0505d8cf
0613e9cd
0d1604c0
130b01ce
1b0214e1
07030fd6
190321d7
160e31e9
16f02df2
28fe14fb
12121ae6
14fe1b01
14041ad2
24fc1edf
110f11dd
fafd26cc
10fd1fff
19e4ea44
12f10032
0de2f947
3c05f450
1ff1db03
19d90843
1fed120e
27f42a13
20161a05
fbf71814
02031a0a
17f507fe
14090cea
f70d1ee8
19021d03
181126ea
0200160c
faff0a16
0803030a
0c00072b
0c05f909
090afa1f
19fdfd0c
0c0dfa10
000eff12
05161516
f406f20c
f41bfe15
f903e32c
f3fbe334
05f6ec2c
05e7e620
f507d405
e5e9d214
f9f0e3fc
f805ddfd
ed01ddff
fdfbdee0
00fdd0df
04ffe4e0
ec0fd8d5
0111e7c9
0212d9d3
0f10e9c8
14fe0cda
120e0bdd
111620eb
190a16d9
15fb1be3
11152cdd
150d14dd
1c0210e5
170112db
0d0f0fe8
060f14d0
17f42ef5
1ffa17d7
080614eb
06fa2203
08f2fff2
11e30d08
03ecdd09
24e20931
20ed0d49
1eebf911
0dece852
33f50138
23eb1d22
10d2051a
fafe2000
1d0e1fe8
fe1111f8
1e06160f
16f80ef9
0a0d13f8
0a0a26f8
ff151906
fb071603
0a050b0d
06070506
14060607
0d10f618
f50ce421
0d11f91d
ff08f311
f3141a0a
f6110c0f
ef01fa31
f602e935
ea08e32a
e3f4cf2d
ecf4db12
f5f6e714
f703e610
e9f6d411
efffea08
e7fee4fa
f9ecdd04
0903def0
040eede0
fa09ede5
011df7c6
0b11f6e0
09020dcd
11f816da
210d18cf
11091bd3
0b0525d7
0e0825ed
100f25dd
0f1518df
09061ef2
fe021cd2
08011aef
0c121cd7
040621db
fdfe19c4
06f905e5
131135e7
0fef12fd
0eff26e7
10010c26
15f8fc2e
20e3f234
15fde200
1ff1ed16
26e9024c
0c031817
02f8ee20
fdfaf1fe
02f709f6
00081719
07fc0d0e
00030bf5
0a022502
15083504
fe0b120c
10001f21
04070c21
09131a17
fc0bf423
f015fe16
f917f310
f111ed1a
fb0aff0d
fb0c0429
ec10ef1c
ee0ffb19
fb05f234
d811ea0d
db02e13d
ec05da0a
dd02d713
da04d104
ee06ec0d
ec0de303
ea04eaef
e70ee903
0113cfd9
0800f5f0
fd00d8e4
0a0af6df
07fff2ed
0a0501c0
12fe19ea
13fb22ee
0b040de5
030722db
060929ea
0dfe28ed
150c0fce
0a0618ad
f91209ef
02fbfee6
111421ee
f80e0fed
030e12e0
eb1410d9
0dfc0bb4
0df024b8
180905dd
1af1052b
0de50e3d
1703e9fd
34f9f602
fd09fce5
24ebf73b
1cff0819
fcf6090f
0efc1138
f6091806
ee050002
04010923
f5171306
f6031c1e
070e1333
f6012613
fc040e0f
0301100c
fd082010
0704f818
0a05ed0d
fe11f621
fc01fe26
fb0ef819
fa14f10d
f115e423
f61aec2f
ec04df08
e80ae908
f207ea18
ed17e6f2
ddf3e519
ed0adaf9
d801dcf7
f103e0fa
ed0bd4fa
fd03e2f6
0806e4f3
0a00f6e2
f70ce4ec
f61af9e4
130e07df
120615d1
00fe25de
030b1de3
021019e9
f91519d9
061228dd
0b0811e6
12fb09d3
14fb0cea
030a0be2
0600fef3
020212f4
0bff20dd
fffb0b02
08e9fff0
1cf118f1
09fefd01
22001307
04da0631
27e31252
18f60238
1505fdf8
34d5044f
1cf8091b
14f5ef31
07f6032c
0df5f93e
f10a0a19
030bfc1c
07fd09fe
0a1b03f3
0df61137
f2fd1c10
04041d14
0efc2626
f80d1e08
f313110f
ec15090b
ee07f01e
ef14ff00
f619e609
030eec15
ed0af818
f30cf124
e70edf22
f00eda17
ecfed90d
e914dc00
dd10df04
e412e3f8
e909f0f7
f7fed6fe
e100ef01
f0fddfed
f312ede0
fc0ae9e3
0103f5de
0208f1d9
0c0af6d6
040b0dd8
f51205ca
0c0122e8
020e19e3
fe0917e1
f40923ef
f50127d9
08141add
0cfd14e7
19fbfde4
e5fa00dd
f31003cc
ff0afafe
fd11f5d5
0004f2ca
fdf6fbe9
13fc1815
fff903d7
26e41621
2dd1fc23
1aec10f6
35e11226
27f70221
eef9f4f2
33efde2a
21fa0505
110a0316
19f7060a
0efbfb00
fe000013
02010217
0c0d0517
f9020931
0507121d
07141420
f0fc1e10
e3050612
ef0c0bfe
ea100e12
eb06fb0b
f1140507
fd16f404
e103ec14
f01eed14
f415f91b
e012db17
f20dd70d
f709d107
fc08d708
e81ce9ec
e604d1f0
f610dfe9
ff0cdcf6
f808dbf0
f212d6f1
fe09f3fb
fcf8fbe5
0e02ebdc
fd11f6e3
0b0316d7
0e181acd
0b0812eb
f7100ddc
f8121fe1
06061bd4
f11615d9
04060fda
ef1704ec
f50f04d8
ee0f0ada
ea01f7de
f7eef1cb
ef04efe0
12f400de
0cf3fed1
1c061d17
02f303ee
0b13132c
07ee2631
26fd00ee
27eef928
0f08f2dd
1cf6ff0f
12e7014b
2e07fced
1aeef40d
03fef610
06f3ec34
0dedf604
2205111c
040303fa
f40afb13
07f20725
09f6034a
020a0f1b
f7142d11
fffb1312
e40a1916
ea071219
e7171512
e31d0908
e3130b07
e30cf107
ea14000e
e917f718
ee18f506
e708ee0e
fd12e4fc
141be0f0
fe09def2
fe0dd6fc
1607d3f8
0305d1f8
08fdf0e8
ff12dce8
fb13ddf1
03fb02db
fcff04e6
0a1606e3
120b21e2
fef91fd1
0b0d1aee
0a0c1de5
ee0319e7
000f22d2
0c0d0cd4
ee0807e1
f9020cec
ff170de4
ed0701da
fbf9f0f0
fbf6f4ef
f502f5e0
fa0d08e5
f90717eb
14e9f2f4
09130adb
10eb1a21
090b0ee6
2ceff441
12f5042d
3fe40247
120d271a
faff0cf9
15f0063e
24e8f031
19e3ff1e
03d8e930
10df020d
0efbf91b
02daef31
09fe031d
f212f710
fdfe133a
fe0d1c10
f7120f11
fb052c05
f30f1a12
eb081215
da08060b
df0e1221
e0161409
e11008fa
0b020115
e518fb04
ff0df31d
0d16fc2c
0018eb06
111eed05
1724fee8
f708fef1
1112ebf8
010eedf0
0500f2e6
090d01ec
0607f1f8
130bf9ee
061305eb
071322e9
000021e4
04031ddd
fcf81ddf
130922f4
f7011acf
0d040bd5
f80011dd
00f90af0
f8050bf5
f4feede6
ee07f9df
e60cf4d1
f4e7e5ed
f906f3ed
fdeafbde
0ceff9fe
07d9feff
00080306
0aedf01a
0f0030f7
0eeafd04
f1110af6
1f011301
ff07080c
0ff40e1d
fff80fec
eefd0ced
010d19f2
1007fafe
0febfb02
0bf2f830
0800fd00
fceff115
e503f8f9
f1ecf547
04f2fe25
0ffe1236
e60c0c1e
ed121b0c
e112280a
e4fc121f
d3162511
eb071b17
d1001712
dc0b0810
f105181a
e90d030e
1cff0945
fe07eef7
0804fef1
060beffe
221401f5
1f0af5fc
0711f6f1
fc0106ec
0d1311ec
110e0bf1
0d0a27ea
07f818f9
0a001af6
0f0e2ede
09fe18f6
0d0217dc
fdf71ede
08050cdb
f90214ec
ed010ede
fdf710e5
02ebfee9
f5fafeea
e90cf201
edf2e9df
08daf7f8
080af7fb
fb00fdfb
ffd9eb06
11fef3fa
02f40304
0e1509e1
1ae3e33c
0feaf049
3bfaff03
19ea111b
1be9f50b
22e52e32
08f81026
0ef0fc03
0ffbfffc
19f60800
0efff90f
fdecfc0d
e504f0fe
e2ecf421
ea01fa00
ef0bee22
f6fe0621
f6fdf123
ee100a18
ebf9fd23
ec090f03
ec032b16
fe032506
e2f91e10
ec102412
db0b220b
f703212e
ec011e29
00012622
0813250c
050b0afe
12061a03
160e0efa
140d10ec
1d0e13de
13fa19d8
0dfc2fdf
150c1bd9
080c2af5
1d0e20f1
05021ddf
0e052be9
06062bed
19fc10d1
f5062ad0
07fe12ec
ea1414d4
000212ec
ec0608c9
e7040ce9
f801f5ea
dbf1ecea
f0ebf1cd
e9f4ea03
f5ece5e7
fcf8feda
1edbe01d
10f3ec16
20fbfe00
01f6e0eb
14e90039
1b00fd1f
eff5fcfc
0cf9ff15
1900f201
0be40e3e
19df024e
0eedf9e7
fafff810
f7010cf5
f7f916d4
ef0600fb
04efee37
f2f6ea04
07f2eb24
effaeb02
e40dfd17
e5f3030f
ed09f516
dd030111
e90f0b1d
dd0e0b06
ec142d10
f5ff0b20
fbfc181d
fe021f2d
fafa2b26
f2ff3503
f9123607
f8f92a27
0afa2322
f5f715f2
010b20ff
000523fd
2af628e9
08012fe1
220325e5
1cfc29fb
22002deb
11072ae9
0a0517e1
1bfc16f4
25f921e2
1c060bed
f6090dd1
15080de6
ef100bdc
000905ec
ebfffed5
f5fb09f1
ed06f2f9
e8e9e6f8
f1e8eae7
00fdf3e9
faeefde1
06feeaeb
12f20cea
16e70a32
0dea223d
34ec05f3
24fb2613
f5140f08
070f01f0
fbecfbf1
200cfb12
24eb0b46
0afb28f8
0f060d08
23f10528
f6e40e27
04fbe7f6
06070705
f1eed6f0
d409db1a
e510ec11
d2f8dd20
da02e516
e104f415
e70ced2c
edfaf910
f9f10932
f6060c1d
fcfe0918
f5000d33
f8f91221
f0082411
12023624
fa11380f
fd063b1a
170b3727
fb082afb
0e0624ef
26023307
11f926e3
1aea28e8
000729ca
0bfc2fee
1ff326f3
0af80fef
fff310f4
110120e2
0f0b22ea
0c090eef
feee0efd
fafc0d0c
fafef9d6
eb09f7ea
eefe09e3
eff1f2f0
f1efe0df
e4f2f700
0b09f5df
f602f7d0
04eff000
0febf30b
17d4f624
06f1ef1a
23f7fffc
16de033e
0cf604fb
17f30402
f4fe0a05
0bff06fe
1ae8ef2e
1b0913cf
fff3f80b
fa07f316
24e8243e
0cf3e309
18fcf9ed
fffaea0f
faff09dd
0107f116
fbe8ef00
ed04e92d
ebe6f219
ebecdc18
faf9e810
e40cec24
edfedf1c
fa0cec17
da0ff92a
fe0b1300
06ec1315
08082122
faf9142f
0df61a4a
0c061e14
0dfa353c
04012301
10f93202
02f62f00
29013cf5
22fe26f9
140b20db
250134f4
0fff23fd
17f927de
0dfd1ff1
240626fa
fdfc2407
0b010f03
1a050ed8
effb0ec8
fb090feb
08140dc5
02f609f2
eefbfbda
09eceafd
edefddde
fe00f9df
fb05f2ff
fe1306f3
0ce3e0f6
1afbf8e5
0ff7e504
1001f426
1ff2003c
2208fb0a
081201d9
250e0f0e
091514dc
01f31de8
2b011309
12e8001f
0e0dfcff
2ffaf441
14f02d39
2d082eca
26f51612
fe0bf414
11f6e41e
f712fdf8
ef0affff
f4f8fc05
f6dcfa35
f0fede1b
fcdae446
0ae6fb34
0c170302
e9ff031e
ee18040f
ee010316
e5081a19
fef01813
00122822
18082804
0df81b0e
1cfb301e
260333ff
130b29ed
17f42426
1c0e33e2
15ea1818
1a051afa
150421f8
22fe1ed4
fef610e5
1a0415db
0a001ee2
100d1edc
fd0d0ede
13e9281f
16ffffee
12051901
faf510d8
fd0805e3
fbfb01fe
090305f8
faf909ec
0bfe07fa
0308fbed
faefeef6
eb04f0f9
f007f6d4
05f0fa19
1ef30e53
19fe1cda
1ef0fa20
20f21307
f9fa1135
1cee2625
fb0bfeed
22fa145f
1f060914
f5fcf328
0af5141f
ec0b08fc
17fc0201
10f418e6
2dfc25f0
1fe6051f
f20a05f7
eeeded26
ea17040f
edf0f820
f118fb04
16f1f116
ebe4041f
08fdf1f3
edfd0305
f506fe0d
f2100b1d
f6071c12
fff30d2d
1cf5173a
f9001a0f
1c07111b
020e2a16
28fd2322
22f43a01
220e22e6
1c001f07
1cf727f5
160a22c5
03f615bb
26131be3
150e10df
10ed0d3c
0ff21def
09131ee1
100d1df7
010919c0
030301d2
e91d15ec
07f91223
fd080bec
fbf611e6
eb0cf8e3
01ed06f3
0c0007f1
18efff27
05ebd919
16f4f62a
33f20d34
03f51324
20eeff26
14fd231f
3603e6da
f7eefd16
0b1c05c4
f71f12af
fbf70b2f
25f815f8
1d1a0ef7
f0f80200
0eeb0604
23fa0539
16eef742
f60c050d
fa13fbe3
e8f6f7fd
21071a0e
fbf5ec1d
22e4ea2f
f7e1fb11
ee010aff
e8eef405
0103fafc
09f7ef16
f0fcee06
0df50824
0207192a
05fa0c12
170a270f
2afa2127
0efe2204
1afd1b16
ff1124de
1ffd2806
0f00290b
16f91c13
17111be5
1cfa1ac0
1ffc1c11
2d0319bb
110f27c7
0ff40d01
00f80001
1cfe12fe
200225d7
f8081cc3
08f315dd
0fff11fe
f0f60f10
071415c2
18f41302
0bf50e14
1df10d0a
ff0bfaed
0febea39
3501fe1c
09dfdf10
08f3f505
1bf71314
09010ee5
20f9f846
27fd15ed
0f0618f2
17dc0c38
18f606f7
27fc0200
14f9201a
17ff2527
17f70a29
05071b0a
05d50114
1a060d00
2bfff900
1be4121d
3df30c1e
1b0beee4
17ee0214
0b00f53a
03f0f6f2
0bebf200
f7060206
15e5f330
0b0809f3
0f0a10f3
0d01f53e
040e0405
1af81009
3504ff00
1aeb0a06
1ffa0e05
fd101006
09ed1300
02072801
09002bed
12192cea
17f7290f
130c21e7
11f722f8
03fb16e3
011125d9
1406100a
07f610d6
2ff51b03
06fc1cf2
e80509f4
1d0e15df
00fa0ffb
10f60030
1bf832c8
130f14f2
05fa0e1a
04030a13
10f311fa
e0fdda1c
07ece925
0de60d0c
f70befdc
f109f503
1ee3f33e
12db0128
1c0e15e8
131101d9
39ed2c36
08e20c2d
170423cb
2c002420
0e0d1502
14eb024e
ff111a06
04060f13
000a14f6
240427f3
04ff0200
f91712fd
2ef01c1a
18e31437
1eddfb51
18020e21
04001803
0c1509ff
1eea1120
1812f30a
04eaf32d
19e8fe33
faf10024
0deffa16
09fe0c0a
11f6f50a
1df6ea45
12f50c0b
0afc180a
13ff1109
05051610
1ef0281d
01fb1807
1b091c19
18fe111f
010b1ba6
160227ec
0d080fbd
0f0323ef
28fc0aab
3dee15d4
1b04080d
010417ed
0cf616d6
02f205ed
e8fe030b
0ff61417
e50b04c6
27ef260e
0dfe0f0b
1b060c3a
0fe1f72f
1407f624
1be1152a
18e9f51c
f3edf626
061216eb
15ec10f7
0e0b0325
36ec042a
08f7f00c
fde6e21b
250b0907
2cec115e
1f1c2633
241b04e8
f00c0114
041b0ee0
12fb0b1c
26f00d31
021306e2
03f80f15
07fef70e
31fd091f
15ea094c
160f0bf6
26eeee47
13e8f00d
f6f60105
270f131c
0af0f70c
27e40d3f
04f9f6f3
11fdf602
09f1fd38
14f5122a
1bf9010d
15ea1528
24f0ff05
19ebf126
22f9f83f
13f90406
28f30716
f6f92d0c
170916e4
03f007f6
1efd0be5
0fe70ad9
30f61fdc
2df50c0e
fcf706c0
25e50d00
3bf3fd46
fbf60305
36e9ed16
0a020cf7
1dea1f14
1a0321f3
1ae30147
19140709
0e0801de
dff71c0d
00e712f5
18e81019
0c08fe00
24e9f844
16f41405
070d1706
110c28f8
160d1013
f3d5e843
18ec090c
08eced41
ff1620ab
fe0e0ef5
0cf20826
19ea002b
3ce50027
0af8031c
05f30c34
fde8fe24
250ffae1
1cfdf41b
0cec06f6
1fea060d
3902193c
e1f8ed10
03f713d7
0bee0313
07f5f820
23cef430
070a08eb
1bec0d3e
1b010f39
170ef113
1f0efe06
11f602f0
2be6f040
19eaf239
19faec20
10f0e835
0301eaf4
10f2fdfd
1df0124d
19ee052b
1eff0333
0001f6f9
25f100be
11e5fae8
0ef9f009
10fbeef9
10f0f904
04f907c3
14fef0d1
0cfdf1e0
1fd2f3f7
1df6ffe0
1cf20f2b
36e5162b
20f90230
17fb13eb
1dfe18e1
29fff308
17fdff1b
f02813d1
0b0f2c18
17f6f5ff
0e0000f4
180b1a11
1ffd201e
18e2f503
02f41ef5
08f72408
07ef0308
250a17ce
28f20837
111101e0
f4f8210b
1af9011c
1ae4ff51
0200181f
34f1fc26
3bf40528
23f10632
14fbfd1a
10091dfd
2cf41121
0d1614e3
0cfb0018
09efe75a
1be91b19
08f51115
0ef821eb
2febeb3d
1f0408d8
f1faf5ff
feecfb1e
0bf5f947
11e7e72e
33e5e13f
27f4f623
08031f0e
000a0415
e203030b
07ecf12c
00edede5
e6f5f1df
04f1e503
20ecf2fb
f9eddc0f
0ef0eb1b
22f8f2fa
2ff30830
30ecf7f7
24ebee4f
f9f0df00
01fb0313
27f0162a
fafa0f05
11f80c38
0dffec11
23fdef20
0e000422
19041500
f8df0732
142531df
050906e1
faf3f6f2
1a0a09fe
ed0717fb
f9f3eb07
02f6051c
2b06261d
1ffb0713
eb010813
01f910df
01152c12
dae3e809
f8fd110d
030c12ef
08000bf8
eff9eb13
f5fa0d07
f4fe04e0
f80107fe
dfeb0716
eaf70b20
eb150402
0c09fcfb
dc0dfdf8
d00a152d
f3e7dbe2
ee00f20e
f4edfe22
f2fbf81c
fb0c0cec
e0080616
09f6f7e5
09fff6cb
04f9f9f2
f8f9f005
dee8f71a
fc01f900
0bdfdde4
03e9eff8
19efe017
f204f31d
fcf2f7eb
f5001228
e806f90e
d0dee705
fb06ed08
e8f20d05
f2120a02
f11112f7
e70716ee
cc10311f
fef7e3fc
f40c0f13
fc1bf2e0
1a03eeeb
f206170e
f1f9fb09
ec102405
fb071f12
fc0705ea
f50d0e07
df0c1127
f506f3f6
e0fb161f
07e9eede
fafcf6f6
0604fe01
f809fff4
1c11feec
faf1fc0c
080902de
d30b2002
ec2212fa
fcfbfe03
0b0317f5
fbff0af5
f40e0cd7
fefafef7
07050d18
eff7f9f9
f60d031a
15faf9e3
071c17f9
141004d7
eafc1b17
f3151617
0b0b09f6
15f9e90b
0af6eff3
04090c07
03f70107
ebe9efe3
f9ede60e
e1fdfcf8
0ee3f4f3
01eefef7
e2ff1332
e5edd8f7
f5e70712
f3fbf9e3
0cf6eedd
03f4fd0e
faece7ed
e4eef7e7
03e0ddd7
cf030f24
f6f6fdf0
f1f705f5
010f02f7
fd0b0cfe
fc10fce2
f70f03f2
ddfbe512
eceefcf5
e31c1522
ea05030d
052014f5
0a0ef2f9
e1f1fc0f
eb0b2d24
fa0501ef
e90bfa04
dbf80308
030515fe
f20ffaeb
fd03f90a
09fb020a
08fd0aea
19f7ead7
f7040611
eb1d06e8
ef1106fb
fa2406e8
fa1c2008
ffeafa01
1f0e0b0b
e2f61524
f0f1fbe8
f20d11f9
f6ff16eb
f0160feb
030a0dd3
eaf9fbe5
f11eeeed
f4fd1801
dcfd1507
ecddf900
d70a03ea
f5061507
02070a10
16e8e81f
e1ed0029
0cf5040e
dbf6f4e9
f70a0309
f20006e9
e6fffc0d
12ebdfd8
fefa00f3
f6ecfec5
f9f702e0
f7f809ed
ff0df1d4
1104f9d6
fc060514
f4ef02eb
fe060705
f5260fe1
fd04f4e1
ee1b0cf7
dff4f807
f0fe04fd
fbf4e80f
e7effd11
f00906ed
0cf7e40d
e805fb0d
f703fa09
f5ff06ff
fef9f307
e90bf901
e8f4f6ee
ff191006
0605eff3
f8f0f720
e212241b
e3180e29
fb0e11ed
fefc0e01
03f2e9e6
ea071303
f01309f4
04f6fce6
05fef1d5
040503f7
ff1c1ad3
fffefe0f
f2f3fee0
f40c030f
f1050d26
e5f50216
06070a02
e8362817
0101eefd
db222e12
dd03ffec
ed0909e8
ea0614fb
e2f90813
e9f4fc0e
e0f10b02
f0f50df6
e6f70200
f7fcf7e8
ec1305f1
eb05f202
f91a14e7
fa1106e3
060dfdf1
0cfffafe
f90f01ec
d7051f01
080dfdf1
e5120afd
f204f3dd
fb1c22ec
dc04fcf0
0b271dfd
e7140c0b
ea2009eb
010706bc
e40c02e5
ccfbff0d
ee1010ea
fffa0719
e80210fb
0ffd00c1
e51c2100
170808ca
fa030cec
f60a0eeb
f80e18fa
e7071206
ec000edf
0cf9f8e2
e60c051c
ef15f613
eb171712
15fb050f
002a180e
fc0709e7
fe1105ec
061f05db
03fc03f5
f0f3f7fd
f51800f9
f7fffcdd
1012f7f2
ef201f0d
fbecd71e
f4030809
fb010be7
f404f72c
eb100516
fd1008f4
e61a2011
faf6e8f8
effdf8e7
12fcf2c8
ed110e09
03e7ebec
eb1a0afe
e70804fb
dc210a07
f802fac7
ec151403
041e06f0
ec1229e4
ea2716f9
e40800f2
dc0f18f1
e32520e5
000f20f6
f11e00d0
ec1d1aff
f01b0cea
f60d200e
f21f0af7
f1090cfb
f606fbeb
f4130ce7
ff130dcc
13fce0d6
db100b0f
f31a2210
e30709f0
dd120322
eb02e80f
e00ffa08
dc152620
e6f8ff36
f22a0e2c
e90ce8f1
eb060823
fc02f5de
01050b0b
e9f91322
0b2222e2
fb10042d
18f6efcc
e1111012
eb06211d
ec1c1f17
04301fe8
1004f7db
041503f2
df231719
e609ff12
f2160f2d
14f2e8f5
0107f905
08080012
eef902ef
e6fe0302
fd0a2115
e90d14eb
ed0c0d1e
fc0f17c8
fffafece
cdfe0cf3
ec1306f2
11080ee6
ea0e04ec
f1110cf9
dd0e1304
ed0612e0
f70d0adf
f01911cf
f61e1fe5
ed2409e2
e6190ff3
e90d0ce8
ed1f0cdb
e22413eb
f71212ce
e81208e3
f71303c1
ed190fe8
ed1817f1
fc1c11e6
eefb1509
fa00f5dd
da050627
120f0511
e3020622
f1ecf2c7
f303f6ec
ec0c061b
f01a09f7
11fbfcc3
e71311dd
f91700ff
f9fdf717
f50def0a
e2f51027
dd1824fe
f0120e15
f5f7fbff
01101e15
f9f304f4
f20a1101
f0040c02
d4f1fb02
ec0b1bf8
fd1c0701
02fe07df
eae3fa0b
f9f50ef6
fc030e25
07ece505
ede4ee0b
0202090e
e9f1eaf5
fcf1f8f0
fcfce6ee
f30a00db
ef04fee2
051704c1
e51503f1
fd1b0fef
f90c0edd
150ff8ce
e81705f7
e91809cc
f31d03c3
f22012c4
ed1511bc
e93a24d6
f31f1ae1
f3200fcc
e52919d3
f6120dcf
ea2710d1
fd000edb
ed06fad6
0c1016d5
e7141d01
060712d9
e8221a12
e61811f5
01fb08de
fe06040a
f20cfc03
e502030f
defaf5e2
f8fc0a07
fcfc170c
d72d142b
0bf4eaf8
fa0bffec
ea242ffb
f70e1414
ff080ddc
e903faf8
f92307fa
0a01e5d2
e50e1709
17f603ff
ea161614
f9f6f6d7
ff010df6
1df6fbe2
fbf40b16
e70e1a10
0c0ff3f9
07090006
f1161bee
f70a0713
0703040b
f9f1fef7
02f0edff
fafe050a
0307f1d9
07f5eece
0d08fa06
140bfcde
f4fd1508
fafcfbe8
f50a1bdd
090ffee1
0419fec4
fdfff8e2
001b10f1
f61b16cd
ec1c14c7
f41d04cf
df2a1db4
fa1720c8
e62c15da
ee2d21c6
e21a1fce
f908fdc2
de2e27c4
f72005c6
fc1307c3
f618fccf
f31e0fda
ec1a1f05
f50504e5
001b1bf4
100609e1
0219100c
0703fdc6
fffaefd6
f8faf3ce
03ffefeb
0003fcee
faf3e1f1
ff011011
fb1408f6
e5f6f322
0908faef
25fd01e0
0d00fee2
ec16f1ef
00fa03f7
0804f007
090204d1
f8ff0015
d70e1b0b
050e0be9
f61f12fe
f2f6011b
e5161123
09e50e28
00f6ecec
ea1d3129
fa05f6d6
f1e0e6e9
05fbe4de
ecebed10
fdfbf0da
0df6d7e7
0cf5ede5
0f0f07fc
0502e1f6
0f0bedd4
0f0d00ca
f91610d8
040508d5
0109ecc8
fd0dfbe8
012107f0
f91204d7
f52212cc
f3271ad5
f52602c2
f62411db
e41a11d7
e42410b6
e5270cca
d90d0cdd
de2419e0
e61710c8
ff1301c5
f1221301
e2111c07
120a08db
ec170ed4
0d1104d3
1d0004be
09fefbc0
020003fa
01ff0cf5
ec0aff0f
f3f3fc09
00fc01fe
f10203f4
06f2f6e6
f0f81c22
ec090633
f0f6ebf5
f2f6dff0
f9f9f5f2
f50b0001
f10510ff
f61c0903
efeaec16
e10e1c07
d90b1c2f
f4070537
ec030d05
e9e4eb0a
ff04f6cd
09e9fae8
fa0e0c0e
10f001fc
f5f4f9e7
fae4eef3
05e5e613
11f2ebf5
02f0e204
0df4eced
f503f50a
0302e7e3
1d03fce9
25eff3db
102816e6
0fff0302
fc171bd3
031a03cc
ef1616e8
002510c9
e11e1cdc
f13217ec
f22a1add
e9130fe0
ed2907e0
ea3227e5
fa221dd7
ec2b18d6
ee2107d2
ee2802d2
dc2516d8
ef220dd0
f12b18dd
f21504f7
ff080ff7
fe230dd8
1c1502d6
001013fa
0f04fbe1
10f5e6ec
120be9d2
1005ece3
0ef8f8ea
13e6d8ec
0efcf1f0
09fdecff
14eaf10b
e70e2107
e6050b1a
04f400ff
e003152b
fc0403f0
e207162f
f40b2116
ef15fdd7
f0100b07
f90ef3f5
f6f2f9f5
fcf6f8ee
e102fd0b
f218220a
07f5e7f5
0df9f012
03fafbee
fce3ea2b
0df8f10f
f2fddcf6
fbe0e40a
0cfbfbf9
0502e6ee
16ebdbfc
0f00e9cf
2108eeca
03ff0718
2111f0d3
17190fe0
f61f06f8
001b13ce
062918e5
ef2626ea
e61d13e8
f82a1cf4
f23b1aea
e91717e9
f12f27f2
ec2a15f9
f91d1ddb
e3201302
e72712ea
ee2115e1
f4130ed6
f22014de
03181ef3
03160ccd
0e230ecc
fc241bd7
1412f9c7
fb0c0ce3
0715f4c4
0008f7cf
08f1e9e4
1eefe4d6
0dff00eb
10f2ebec
16edf5ea
0cf3deec
08f5f112
01f5e9d9
dfeceaef
0d0afdf3
f30f01eb
ed162b1f
f7291812
f4fdf614
f8f0fa18
030c0ce4
e4e90015
e9091c0a
f91b17f3
000c030d
e6230f2b
e60a0818
f7fbfa12
eaea11f8
f1ecfa17
12e0dfec
0de3f1f4
fbf4e826
1beddcc6
2500f1e3
22f7e6d8
150400ec
1806fbff
250cfcd2
0e1510d8
1c1303e4
0e190ef5
141d0ce9
ff1710f8
08301ceb
f8190ff5
f92f15f4
f42c2ce0
ee2114f1
eb162b17
e518300a
f3201efd
ee180aec
ec1b11fb
041301d9
f31715e6
e8201f0e
022625e3
091f10e6
0f1304de
092200db
0906fbc7
130a09e8
0b1410cb
140bf3bb
11f9ecce
17f5e3e4
1bffead1
00fb0104
0bf8f2ea
03f5e3fb
10f8dee6
060ae6f6
0cf7ded5
08080505
e9060927
05fef0e1
e903f72c
f21309df
fdee0a19
f402ff22
e7072121
e0322d15
f401e6f0
edfdef0f
0ff017f0
fc140ce7
0cf7fe03
03feedde
11dce1e5
01ebf2e2
10fae801
07f9e2f6
12eee2fe
1bf7eafa
0df7e9c6
0dfdf7d8
100103df
121f09cd
12fffac5
111f0bc6
0b1af9c7
101ef5d1
ff1608db
021311fd
f8221513
ef1416ff
f60c160c
000f1214
e9171e15
e8080f07
f1062619
e7141f0c
ec14241b
ff0c0106
f20b19fb
002816fd
fd2928fb
fa2516ef
081916eb
0f1ffbe5
0623fee0
fd1706e7
1b1c04cc
1219f3ea
290df1e0
200bf2eb
11faf3f5
13f8ddd3
1de3ecc6
13f0dffd
f3f5e5f4
fef2e401
f60d0bfe
f504070a
f900f801
ee000513
f5f5efe6
0f1eead3
03f2ee0b
f4f9f2d8
ef1612f9
0ffefb13
e8140819
f8f3f2fa
f6fb0c1c
05f6ff1c
0aeae60e
0d080506
07f7dff8
0803eadb
10f2ff11
0efaf3e2
0907edda
0400f9e2
190cfbd3
0b0b0ad6
1b03f2c7
1a2406ca
08130fe1
102502cc
161306f5
1f210bdd
190a04f4
0b152508
fb112636
030b1315
f0012522
fdf81d1b
e6fb1f27
ecf11027
daf71c28
e4fc2131
00e90e18
f0f20916
fcfe1622
ff142118
f5101703
04271b15
131e13f4
101616f5
191e00dd
1c1814df
0f0fffe7
1f2509d4
101e02d4
1418eed4
220eedd2
1dfcd9c9
13ecddd3
15f2ecd0
1dfbd9e6
0ffbedfc
0df5f6f7
0118fde7
041005fd
e4060a28
00112108
01000f15
e40a1bfc
e1020400
eb0f0f24
06e8eaec
0009ffdf
f11d11f4
fd0706d1
05090cdf
fbf4f71f
ee090af0
010f0b02
f4f90423
07f6e1eb
14f4e0c8
1cfbecd5
1310f1ce
1c1304ce
1f18f9d1
2710f6c9
1314ffd6
141d00da
092a06ea
14010bf2
07fefff2
0b1910ee
fb162322
f9101229
eff9201f
f9ff0927
eaf4063d
02020121
09f10b23
0bef0423
01f21331
f6ee0d25
f9e60229
00f31332
fbf21240
f5002225
01132024
150b1413
0f1e05fb
1a2905d6
13260ef0
1c23f9e6
13160af4
1f0ef0d5
1808eac2
1519edd8
150eecb0
0b09e8d1
20fff7d7
0706f3e7
07f7f3ce
08f7f2d7
05f8f506
07f705f9
e2070202
f30c0608
f3fd0711
ebf5f3f0
ff0c0407
e9040e29
f60d13ea
fa17080f
16fbf602
ea1e270b
fc0903e1
0903fdcf
f5190d02
0308fbee
0cfcecca
1604fb00
14fbe9df
1007e9c8
150cf6e1
291cffe4
212401dc
1c1b08d3
1f220bfb
1a190ad5
200b0cfe
041b14fe
1efb0cf6
16080f14
fa062127
0013001f
03f40a2d
fbe1f437
08e9f61d
04f2ec2a
00e2fd1b
eee4f632
00f3fb35
05e3fc1b
fdf5132c
03e61639
fee60d23
08f91125
0b050c12
0a051e19
0a1c1901
1c13fbfc
1f00ffe8
1d1b0dfe
221a01d5
21200ce3
240ff9d6
0f1f02d6
1316eebd
2211e4c6
15fbeebe
16f201f0
140301e6
0df0e4f0
f20606ee
d52420ee
031ef8d5
da04f4eb
fbf2edd9
e4f3ec0b
07f1f4e2
0b030dfd
f70d0508
f7f6e7f9
f10900ef
eb160c0d
fcfdf00b
05fb06f6
03100bde
0b030cf1
02fff5f0
0e0aeccf
0f05f4d0
061207c8
120ffcc3
1c1d02ce
1f16fdda
1a150dfd
1d1405e3
29fffaec
1305f8fc
130504f2
180d0602
fe070a2c
fb0d102a
0cfa0522
07f1f61c
01ea0131
edfb062b
fee3f22f
edfbfb42
f9ebf024
f5de0341
09e7f820
05e2f036
f3ea0131
f9ee1236
08ea202c
13f12422
09071336
0b100a21
1f0d1509
0212feff
1a01f4ec
1a0aeedf
2615f2d3
1b1bfcd4
1a200bda
1810f3d9
0d0900c8
1304e4c6
1ffeefec
1900fce8
e604050a
13f2ddc9
ea060bf4
daf0fa19
fc09fcf3
01f30b0a
08f4e5dc
0907e9d5
e113010e
f4fbf624
f605fbee
010a100b
e81517f8
0efaf915
f9f6f8fd
09040300
0200e9fe
2af2e6d5
00150009
140ff5cd
1a1006d5
1a0c05e0
231904e0
1a1508e4
0c0c09f1
2e0801ef
180ef705
0410fefe
1a020f14
fe080c0b
fa020814
0dfe0d19
feff031a
09fbed17
f5e8ec1c
01ebf733
0bf7f32d
fdf9ed26
01e3f520
03dae41f
f9e2f031
02d4e434
03e1f235
07e7fc24
0af80d2b
1ce9061c
17e3fe2d
0ef11017
13f31700
190e1e04
0b1b00f3
0d04fd0c
1f19f6f4
2016fdf0
1419fdcd
1e14fce1
2005e8c3
140ae5cd
09f8ffe8
210cf7dd
1703fdf3
0b010505
f1fdeaf6
e70917f6
df0b111a
e60c0a04
06edf502
f9f4f005
d609140b
e2081d0f
f4ddfaf9
0f1706fb
d6050909
031306d5
f60f0d23
2300eed6
03fd0b03
120af4d5
0c0df2d9
141af7de
1e1405ca
1d21fad6
1c0e08e0
1b1c0ef1
150d06e0
20fff90a
12fa010a
1f100216
0c0b0814
13f30f12
1dfa0909
0cfe060f
0400ec0d
f7edfa29
0be9e023
03eff529
fcf4e627
05eff015
06f5f625
fce0e619
01e1eb24
fbd2fb31
edcdfe3f
faddf439
fee0fe2f
09e40720
08ed133b
16ee1611
04eb1b1c
0c060603
0afe1109
1715fef9
1515fe10
141bf8ef
2106f6de
0e19ebd6
1802e9cb
0e19f3c8
0a0405e0
130ff5d1
fc05eae7
0811f1cb
12fcf2f2
021117ec
ebf5f712
f7f60009
f9ecfefa
e91503f8
01fef6eb
0af6edcf
f7fc0a0a
ff01fd01
f40c0a08
ff1113e2
f80f09ed
ed200f13
fd0efdd5
fb0ceddd
100c03e0
091506d7
202407d2
111c08e8
1d1414f4
0e0cfdfd
081710e6
1ffdfd00
11020712
0d0c0ef8
190a0904
1bf70005
fff8032a
faf8f51b
08e8e0ff
08d5df17
ffd9f426
0aecd606
fdefde11
fadbf11d
03cfef1c
06d1ef17
07e6f51f
00dbf339
08e7fc33
fdd8f118
03e50630
15e01121
0aee1c26
11e41e16
05f41d1e
0af70e10
10000606
110b0f0b
2013fbf6
0a18f8e5
0b0d03df
fe1208f3
052700eb
0505f6c6
0714f5b9
0c07f8ca
1c12fec2
fcfef0ce
e5e2fd06
ff160811
fe04fef5
f9f8f2dc
e1f0fdfa
fcfd090c
12e9edfe
eff3ef0b
01190619
f8090e1f
0d0c0ed0
eb0d09e4
150c0ae3
f0171100
131411d8
160cf1b7
130a06db
031510d5
162210e7
180a09e3
0d1011f5
181d1405
17031003
0d06f214
0dfc0c15
000009ff
07100202
07080e13
f20cfd1a
0601ed1d
07dfdd23
ecf8e52b
f9deea1a
eae7e41f
02d4e60f
10d8e706
f4e6e411
08d0e316
08d8f31f
f6dcea31
fbe6f926
03f4e91c
00eb0226
13e4160d
f6f50716
fcee1f29
f8f01416
03e7191c
09f5fd16
1cfa110d
180cff03
13080002
021e01e2
050a00dd
050a00dd
0a2006c4
f016fad3
05250acd
fd10f5d2
ee0ffede
fe0bfed2
ff0f0b06
edfb0c08
f1030506
0507f508
fff20a03
f6120be5
02f0ecfc
eb0f0919
f009f8f1
ee1410eb
e217f9f6
fd0dffcc
f71d16f8
f81416d6
f21e1bc6
0a1d0dd8
071211f1
0a170cda
06120efe
0c17fc00
0a08fc01
1702120b
02060514
050c061b
070c051e
0f0bfd19
0cffee2a
0501e616
00fad82b
ffe9e119
f0d2f82f
03cceb27
04def111
01ddec0b
1bd5e3fd
0be2dd0f
0fe4f30d
f8dfe010
06e4dc12
10e4e215
fbe3f71e
0ce3fe1c
0de20417
03f2190a
03e61c0d
11fa2c05
03fa2312
1aee0f1a
0b02f70f
13081118
12100801
fa2201fa
0c210bf1
060df2e0
111400f6
1517ffd6
f3181ee3
f21720d5
021809e3
f5fbfee3
ef051702
ee0e09da
0a01f8f2
de040e08
f7f60d17
eb09e8f3
f8ec1309
e915080f
ec01fe04
ef1708cc
010707d5
f71e1ae0
f91114c8
e20f0df5
ec060dcf
061712d4
fe2214f9
112219e5
0d0819ee
040508fe
03071409
0503051a
f7ff122c
1312221d
0cfafd0d
fefaf31b
faeae823
f8ede016
00e1ed18
f0cdf21b
00d2021b
fbc8f519
f7d6f618
06e2f701
0bdcfb10
16d1e20b
05dfe602
06edd604
05e9e115
f8d4d724
f0d3e61f
fbebee1c
12ecf929
10f9013a
fff00f22
19fb180d
120d2b17
05fd1a12
fce50420
070f1b35
0c1d1503
050f15f8
f70e0bfc
08140ff1
f91d10f5
f11e19d6
f31917cc
02100ddf
0818fddf
f50efae6
071607ff
ee1b1c16
02fbece5
00040509
f8ebf7e8
edfb0b1a
f709030a
0b151bfa
e300130b
f52010ec
f0ff07fa
05110dd4
ed1a0cd7
ea271fea
ff1d03db
07211cf2
eb1f14f9
01041803
f0180dfe
090c01f9
08f20a13
00ff0231
0f05fd0c
10f50b0f
03ee0317
04ece735
fefbe628
fde2e61c
02d5e217
fdccf325
05dbff16
faf4041d
f4f90f07
08f3030c
fddfe808
1de6defd
18ded8f5
05f6d300
08d2ce0f
0af0d10c
04f0eb1c
f9e4cf2e
fce7e21b
09eeeb1e
01dbfc17
04fa1936
f6e22b10
fffb2b28
0be51723
03f1142f
05020823
fe190f29
051b0c09
01241d03
f119170a
fc271aee
ee1e1ff2
011007d0
fe1d1dfb
e91c00ea
e4efe3e3
03f80800
f80007d4
09070dd3
f1eff805
02fde5db
e3e9e8db
f4fddcf9
e005fde8
0a1a05db
da130fee
e62709d7
f715f8d7
ff210dce
f40d0cd7
f21813e8
fa140bf4
f9120be9
f6090e12
fb060b0e
fdf80d26
03fe041a
09fc070d
0cee0708
08fbf128
02edf823
fef6ec2b
07dfef25
fdc4fc18
f0e4021b
dbee2307
e0dd1d19
06e81cfc
100907f5
0afef3f2
19ebcdf1
f8faf1fc
fffcd7e9
12e8ecf4
09e3da0e
feefdd04
0ae7e00e
fce3d210
03e3e737
02d2dd2a
14e8fb0a
fff3101d
fde4162c
fbed1519
05ef192d
fe0b2c37
f5000d2b
f8160f12
ee15160a
fe2e29ff
f62d0ef0
f42709ce
f32123de
fa2720ee
fa1005ec
fcfbfef2
ff0c05e3
f1f8f1e2
1a0af9fb
0ee2f403
ea040e0d
f202fef9
0810f9f4
020e02cc
cc1807ec
f1fcfbe9
e8260fee
052c11c4
f62915ca
f72414e4
eb0e08dc
f3090af3
010110f4
f9ff0203
fefd042a
fcfd072b
0b03061c
04fbfb0f
00eff117
08f1f426
0be7e00a
fddce007
04dee31a
e2d6f519
f8eb1b07
04da0ce4
eefa1f17
f8f700f6
05ebe5d0
0af9f9da
0eefe2d4
11f5f0d6
04e7cfe5
01f5e0fe
04fbecf6
eee9dbf1
f8d6d802
04d9e40f
12d9d52c
f5e3d526
01e9e922
0fec02ff
fef01e10
f8e01c26
fcf91d36
f3ee1720
f20a1b31
fb101e1a
f71a111e
fc17190b
f1170ed5
ef270fd5
e01c18cc
ee2415ca
e2271dfd
08200ee4
060df9e6
df0bf6f4
ef0b13f9
e2f0e7f9
ee06fdef
00e6e9de
feeee5d6
0b0f0cd0
f8141bd0
ebfaffe2
ed0709d6
ec130acc
e61a01cb
f12607cc
da1319ef
ee161def
f1040800
ed08fb14
f5e70228
eeed0034
fbe2fb1f
f8eaf121
f3defa1d
0deee714
0aebf80f
01e0ed2c
f2d9f022
03ecf0f5
fef0fc02
fae3eeeb
f6f50102
02e9eee1
05f4f7d4
fef9e3ce
f412f6e0
fbf5e6e9
f707f3e0
ebf7e8f7
00f8f9ef
f2e8e108
0bfce9ff
07f1df07
fbf9fa34
08dad527
f2efe416
f7e0e81f
07da0316
fbcd0c13
e9f11c33
06eb1327
fef41221
010f2327
010f0a14
eb1a10fb
f91c28e3
f52509d0
f12217cc
e5180edb
f00e07d1
ec1d17e6
e5fe08f1
fd01f7f4
f8e8e50f
faf3defb
f4f0f11c
0ee9fae0
09fcf9f8
e81006f8
ea1e10d1
e911ffea
e61707ed
e61200d6
041a0dc6
ed2317d0
e31d19da
e30410eb
ed170b0a
f2f80728
fbeaf928
f5e40129
01e8f529
f8fb0d1e
07f0f80e
f5d5e720
02dbe71a
04ddef20
04f1021d
f3e0fc01
05f70407
05dcdef3
eeddeee7
e0f9fff5
0405eee1
edeaf3e8
fb06fafc
f7edeff7
f9f70ce4
ff02ebdf
faf5ef04
f5f8ed16
11f8d6e0
05decbe0
07d8d726
f0c9cb1f
fde5ca24
0ce0f811
fae90021
fcf31322
faf7123a
f8fa113d
faee183e
eafc2634
fe081e19
ed1e14f9
ee1716e4
ef1d24ec
f0220bda
ed180ad2
e61115e4
df05fbfd
e9040dff
fdfae0f5
02e6e1ea
e1e4eb04
0bfaf2fa
ddf7ee06
e80d001e
021600dc
e92917e5
081205c0
ea220fe9
f11fffcd
f42806c8
df1a1df0
f3191de6
f0180fff
f2040616
f1110312
faf60530
fefa0728
f3e2ee21
fafdfd1b
0bf9f41e
08d2e919
0ddf032a
15d4f509
08e2fa10
10f6f212
f7dddb0d
1ce2e2e1
e400f7e1
eefb03d7
f00400f7
f20bfaec
01f7f1e2
e1f5eff4
ebe9fbe6
ebfe0a0a
fdfe0be0
f3f4e9ff
f7fdf905
01dfe5f4
0efadb09
11d9c71a
00e7f237
ffecf428
f7d7ea22
0df30a20
02ebf43d
eb011b47
f7ec282f
fafa222d
e3fa2122
f90817f6
ee1a2105
eb291fe3
ec181bc1
ec150ae5
d7210c00
f21e1dd4
020504e0
030a05d2
f8fafc06
04f8fedf
f208fdfb
15f0efca
d009070f
e90a11fc
01110cdc
da0a1cda
f31412d6
fb1610e3
d92209d9
e6230bd0
e21e0de9
ec1917fd
df150916
dbfeff35
f1f6022d
07ddf026
feeafe20
fbf8f030
f5e8f014
07d8f402
08d4010e
06ccf203
0ae7fa04
12dfe4f2
0ce6dcee
01edcbd7
05fee2f3
eefef9e4
faefecfd
f3f60603
f1f3e9f5
f2fe0ef6
eeecf5ea
f7eff4ea
06eee9d1
0ff3ede1
16eeeae0
0cf3f10a
09e7e324
08e0de21
f8e6d630
08d3e51a
06dfea1f
04f7ff2b
00f2fa25
f8f41040
edf91734
fdf61420
ecfb200d
e1231bfb
ec212afe
e9221bd4
f3291dcb
f91913ca
f42218e6
003316c3
fa1105e9
040201cb
f510fffa
05f3e2df
ffeae2ea
f6fff300
dcf50329
e7121cfd
fb1212d6
f90016f0
eb130ff8
eb0e07e0
f82219cb
ed2d25e6
e71418ea
e00c0dfa
f8020f17
f60ff932
fbe2ec31
fdd9fc3f
f6e1f61f
04f1f328
02f2f419
0aecff1b
04e60720
fbe5f519
0df5f5fb
10eceb00
16f7e3d8
0ff7d0da
10f1d0d2
ea03eef2
f4fdefec
f206fde5
e7fbf5da
fa060001
f5fbedec
f9fbf5e1
08edeee1
1701f4e3
29dedcda
1cefe8ef
02e4d904
11d1ce07
f8d5e711
07e9e71d
f9ec0222
01f00815
f5e2f83b
f1fa1149
faf01538
f9f11831
efff262d
f30516e3
f21d19d4
e91726ed
f21d26bf
021709ce
ed180bce
ee2d1be4
df0307d2
f811f9c3
cffefff7
e20203e8
f3e2e9e2
0605f3d7
f5f6fce2
eb110bdc
df1f13fb
e01a1501
ee1d19f2
e72513e9
e41d03d6
f0251aea
e32712ee
e11e1bf6
e40d130a
ed02052b
fdecf730
04d3fb27
f9f5f72e
07ddef21
f8e40021
fcef0119
f7defd1c
03e9f9f9
14edec0d
12ebdaed
16f0d5d5
08eee9e0
f300e0cf
faf1f0df
e4eff1e4
f0eae4d2
f7ffeaf5
e2f6f7f7
e809ece8
00f402e8
f0e6fe04
fef8e8e8
1d00dfd9
0e07f209
12fada21
00d7d7fb
0fced604
efd2df28
04def71f
08e40012
f4e3012d
edecf92f
f6f72238
f6fc2023
fc03140c
e31f26f9
04280fe8
f42220d3
df1f10e9
f11208d7
e5240fd7
f4230dc7
f10e02c8
dc0c10ec
ee10fdf6
f80a0a15
d502ea19
e3f9effc
f907fe00
f20e02ee
f0fb06fd
fa1318e6
f10f13ce
e71510d6
e81e1ad5
f21509d4
f32315d0
07171cef
fa0f1117
e8050524
eef50143
f2eaf42f
f0e80038
f3f7f22b
fae80815
02da00fe
f6e4fd24
0ee10606
1fd9d9fb
04f5def5
0eebd9d6
0df4ece1
fbf2eff2
05e8dcee
ebffedec
f7fcfff3
e606f801
f7f5dde0
f5fef2db
e0effcd8
f203f1df
fee5e4ea
fffedd00
f4cdd606
03d8c41f
00dad4fe
09d6ddfd
0ccdea11
fde60014
09e3ff13
fee2f833
fbf5053b
edf4233d
f50c1b26
f2171702
f1191b19
ee1b0ed9
ef140cdb
f21c17c8
f91efbce
de10feeb
e5150ed1
e31f0ad2
f4feede7
02fbfed7
12edede0
f2f0ece9
eefcee00
0009ece1
fe0307f3
f80f0b0b
e51d0ae9
ef211ac6
ec1715ed
012018c1
f11a13dd
f71c16df
f4190ae8
ed1a0a14
fa0bf42a
f1eaef26
fde7ee25
f8eafa27
fbedf724
f9eff40d
f1e9052b
ffdffa19
06def720
07f1f205
14d7e702
feeae20b
fce2defa
eeedee02
e1e1d3e7
e2e8edf2
fa0200d8
e4030903
f9eddceb
f3fbfde5
e808eddc
dcebf709
f0efe602
f4f3ebf3
f4d6e923
fee3df2c
fedde500
f0d5d90d
04ddf61d
07e8fb0a
fedfe621
fbe9dd2f
fafbff2f
f8e91130
f3030e21
f3131201
ec160cd7
e51516c5
f51009ca
f22614d2
fa14ffd6
0202e9e9
e41d0bfc
d90600f2
1200e8e4
feefe9d3
ffefee0c
03f8eceb
f0fff5fe
e900ecec
ff1008eb
ff07fcd7
112516e8
f91123df
ea1015ea
f8230cc4
f61a15cc
f42619e3
e0231ef9
f81a19f1
ff07f90d
eb04021a
f7f4f421
e9ebea33
f5fb1021
06e6002d
08ecf016
f8e70011
fae4072f
15deff01
fde8e407
f2d9de16
e4eee9f9
e6eeeff7
e1feebed
f707f8ef
02f5f6f3
0af7e9f0
0bf9f6dd
f1eed7e8
effbf0e7
fbf1e4f3
ebf3efec
f2cfd3fc
f8d1d51f
f1e9f302
01d9f409
fcd9e304
fce3fd12
09ea010c
05eae10d
fbeaf831
f6e90f37
fd092423
f0ec1bff
fdf91902
ee221ff4
f7181ae0
ec2b20de
f52010d9
eb1814d4
f01108e4
e51c0bef
d80b02e2
11f3e8d8
02eef7ea
faf4ded8
1beff9e7
d5eeed04
f500fbef
f90502db
d4161a00
e81817e6
f23226ee
e62e24c1
fc271dd1
082101c6
f6270add
eb1a1fed
ee1a0af8
f31c1216
0a02fb1b
0bfb1a30
01f1fe3d
05e7fd30
fef2fe1a
07fcfe05
f3e80229
f7e60e29
dbe50028
10e0ddf2
f3e7de09
f5eedfe8
05eee907
0ae4ece5
04e6e6f0
09e0d6e0
10e0eaf0
f1edeaf7
0cf2d9e3
f5eaf301
f9ead502
f0e4e106
f9d8ee13
08d5ec07
f3eaef2b
0bd4ef09
fde3f125
05f1011a
09df001a
fae9f325
0fe8ee19
05f80b11
060c0b1f
02172c1b
f9171302
fe120be3
f32a20f5
fa0d05de
ea2413c9
ec1a10df
e81008e8
051413e3
012511d6
ff1901f7
fdf7fe15
00f903f1
eb09f7fc
f6f5f404
dd10122a
defdf405
f40bede3
051404f8
031801d3
e62a1ff8
f32616f3
ed1d10d8
f51c08cf
ee2d26ee
011415e9
f80b100b
0307152a
f9f4fc29
ffebfa31
02f80922
00011815
0cf2080a
03e7000f
10ebfa09
fdde1d1f
eef2fb0b
f4eae411
fae1e70d
12e7e5ec
f6e4e9f9
fee6d2f6
f9ead1f7
09e4e9ea
fdebddef
04dee0f2
05d4dcef
f1f1e311
0de2e707
08e1f029
e7e10f31
faef032d
0bff0706
fee4f91d
15ed0004
fdf30815
fcfa012c
f707f833
02050a2f
09fe0e0b
041319ff
fe1217fa
ff161ee1
ef1a19df
f91224ef
ee0f12c1
fd130fd8
0625fedc
0f20f5d7
e324fee7
fb0d0cf5
de1000ef
e7e0e6e8
0d06f107
ecfce7d9
dffdf9df
fc0f11fb
010c05dc
01100cf3
f31506eb
fd1f0cfc
eb2e1ad8
041c11d5
ee1211e0
001f14f0
031e1cf9
0a160e01
fd180c09
0f0af91c
17010708
0df5ff09
18f4fb00
0ffd0020
18faf604
05e8061a
08042c29
fdf2102c
fff6ee1f
f4e5ee21
0bdceb02
0bded303
08e9cb14
fdd9d508
fde2cefc
01f6ebfb
fff8d1fa
fde9ec03
0bead70c
f9deee0d
f9e7e20b
fdd1ff31
14e9f925
0ef2ff1d
03f6041a
12ed080f
fdf2050f
0dfcf024
140d121a
17031f08
0d042512
09262201
052717f7
0b2318ce
e62f11e5
ec1615e5
0a1901f2
db1505ff
e02222fd
f31ffdc9
e52310ec
dff914e7
f3150f02
fdebf1fb
e2ee011b
fdf6f2df
0900f4df
0b01fff2
f20a0ad8
f71515e8
f21616f5
fa060c08
fe1d0cd4
f512f9e5
09080cca
0b1506d9
0e2016d0
110b15f6
02140ded
2008fafb
14faf908
0bf2ff1e
06fc001a
09f50b18
07110f1f
fe070a27
1a090b13
0ae91f19
ffe9fd39
f7dae23c
ffdae51c
ffede716
09d6e616
07e8d514
0ae6de10
10e9e009
fae5e013
efe4e820
f6d9ef08
14edf104
fbde0023
0cfa0b17
fafc1813
06f5011e
03f10b11
fe04ff25
03010317
13060219
040e150a
07182204
01151bfa
101613f5
171b05c3
f52213ea
091c05ed
042619e5
f41a0bde
f8180fc6
f10e02f6
ec2115e9
e91008f0
fdeef9d0
dd020505
eee9f8de
d3f8fa16
e9f8f20e
f2f9f2de
e3f70507
fa110cf2
f50c1014
f22204c8
001219fc
040bfcd5
f70afed7
081008b2
151912c5
161c1edc
1f1115d2
0d0cfbe4
141809f7
1517fcf6
160af8fb
0afdfa06
0708f71a
00020c27
0e01171f
120c0a16
11ff031c
02eb1037
08e0f617
01cde028
f7ebec10
00e1ce06
0de0e506
0ddbdf00
10ddeb0e
f6d5d613
10e9e411
0de8f21d
fee0fb1d
0be70806
0ff2ee09
03f30812
0100fa21
100afa0d
14f2f60f
110af40d
11141704
140d1509
11040ef1
011227fc
081004f1
1317fbd2
131cf8e1
0c150ee0
02070fe1
f52511c4
fb161ae7
e01718e4
e82a09eb
e7f9fb17
fb0af1de
01eaf1f7
df04fff5
f10c0b06
fff0fdf6
f9f1fb12
cc070401
e91010fc
f701f7cb
002007e0
f30f1b22
1411f8f0
f61a0308
03190fdd
11120eec
1a2c1801
1e0710e9
0b0e14fa
1f1a0cf7
1111ff04
05040501
13fbf417
0cf0f301
13ff0717
0cf0fc17
0e161527
1c011015
fdf30f22
fdf30523
f9e0f121
fdd9ea0d
0ec7df27
09e0f625
fae7f118
06e4f90d
fbeaeb0f
0ce2f517
06e6f80a
f2e8f215
00f80728
14e8e50b
ff130825
1200f314
09fa0c0e
050a090c
0f1001fe
09181b0f
0d1b16fb
0c142408
0b0a02ed
22110cdd
171515df
160a0bf6
071b03e5
0d0ffafa
032209d5
fb2109e3
04fe09c5
f83e1b01
f711f7ff
f2130800
f10704fc
eff7f7fd
ebfbfcf1
f5dae20c
efeaec28
e20004de
f71b0fff
eef30709
05f8f4fa
fe0d0ae8
04050de6
0f190bf9
0e1ef6cf
1c1e10c9
0a2f16df
092001e8
ff110cf5
1a02fff1
251805eb
09000c12
0e0df518
07f5fc18
0706ec0c
15020712
0d07fe18
00f61d31
14f10429
faf6112f
f9e61427
fce3ed26
fee5f10f
0fd9f916
fde4f732
01e4ff16
ffef061c
04dcee19
fadbdd2c
eee8ee3f
f2f40c29
00feef10
0bfc0019
18efeb09
160208fa
1216060a
fe2211f8
1e150af1
07252afb
181815ea
1a160ad1
20150bd2
241d13d3
161500d6
0007f5d6
0e1712dd
fc0c12eb
0b1cfdf7
0f02f2ff
0b0b00cc
002c18ee
de07ff0c
da0914d8
f0120ae6
01ea0b1b
effa0233
19110514
fafaedfa
e206f60b
0809eff4
0709ffd6
fe0b0108
090200d9
23f9f7e7
1b18fbd6
131106f1
1e24fddc
242410ce
141f08db
0b1115f5
171e0eec
11060a0a
13fd0806
11ebff19
10000d1e
06ffff10
0ffef80d
0904021f
f1ef1228
04f5141e
06ee0615
e8e4fd3a
05f10b21
0ae8f20f
01f3ee26
fde3eb17
fef0e710
07dcf215
faeeed11
eff5f91c
f5f3f913
0808f012
17f9fe24
f4070d2a
12ff120a
1c0704f3
070315f1
0b0c16ef
1f0a1fe2
1d1e0bd4
140404ed
120dfcca
f41b0ae4
0f0ef6f7
0d02fee9
060704d7
070efeef
04100dec
fe0701e0
f10417ff
001201e9
fd06fd17
fa04efd7
e206fddb
f7faf50c
e8f4101c
ddf001e8
d1f9112a
daeef41a
f9f7f9f7
f702f421
090c00f6
fefcea18
13f7f406
fe13060a
160efadd
2318f1b3
1f16f8c2
1c1c06e4
170c01d8
25010ae4
16fd10e4
0fecea17
1c010501
0e070812
0af5151f
06fdee28
fc08f92f
07e3012e
f7e9fe29
0bedfb1d
f3e0092d
0ae10122
06e9f728
f6e8031c
fbe1f60f
01f0f428
f7e8ef1e
fef70929
fdfdfd1a
faf6031d
02e90715
00f40921
14fc0d10
0af71a06
1c071ef1
1c0d12f0
0f0f0de8
270709d6
232517e1
2a1804e5
1f0df3e1
09fcead6
210ee5e9
0e0cf8f2
1606edef
fffb03f6
1d03f7e0
0106fce9
0d070be5
110ffbe5
dc0e1fda
eefd10da
e9fc1705
e9130b0a
e3f80617
20eaf3f4
d1e6fc41
ec0a042b
e6f41a10
0a10ffe7
0307ff19
09f303df
1cf6efdf
0ffbfad5
0616fcee
0f09f5d4
0f17fede
220d0bc6
2b150eda
250fffcf
100a06f1
2100fc01
1d0e0520
1404031d
1cfcfc11
130a0014
1003131b
02f6fc14
f8f70d1e
fdf8f630
08f1fe1e
f6fffa28
06eb001b
f1f2072a
01f10728
e6f70b24
fcf60a1d
f702fc17
fbf5fa0b
06e60c1e
0ef90922
14071e1f
0c0a1f1d
250c10f8
18070dff
10060bfb
111704d8
2010f6d2
2112ffe3
2c0cf3d6
2005e7e0
0e02f4e8
1d09e6de
0e0ae7bb
2a01e5e4
f70b0b05
10edf80a
f60812f2
e40b1002
fb08150e
021116e2
f80fef21
e7ecf816
ebfdf428
f9ecfdfe
eafff002
e1060115
f4f6ecf3
eafdfa04
18f7e6f1
03fdf7ed
020bfbfe
030af60f
151302e0
03fde3df
1cf8f3b6
1a22f5d3
242b06ca
2419f5da
211610cf
1a120fec
1210fdfd
1c070e1f
1710f813
16fcf722
fd08062a
03faf318
0d08031e
09070523
f800f52d
f6f7113b
08eb0b19
f9fc0730
e9f6052c
00f5ff15
efeff410
fbfb0a2a
02f0fc1c
f8011515
f6ff180b
08111826
10ff180f
17211ae0
0c1719fa
181415ee
170efcdc
1b0b0deb
1e00f7e3
0e0afcea
1d0eeeec
1e0df9f5
1712d8ce
15f7d9dd
13fcf7ec
0703f008
06f0f823
020809d6
f7fefafc
ff100702
f20811d7
fb130512
d2091908
f609f5fc
e3fe06f7
fc17190f
0804fafe
ed0bf803
f1f3f0e1
f5f604fc
1ff4e4d8
0df9dfd5
0bf8f8da
11f0e6d0
0600ecfd
12faf2f1
0a09eec3
0d14fbf9
1c1703da
212605df
280f01e6
121d0ae5
1f06f5eb
1d1dfdec
090c0d0e
170efaf9
fa020117
0b00f92c
07f1111e
ed0d0016
01fcfd2a
fbee0130
eaf6ff38
02050e21
f5f1ff16
e7ea0f2e
f6050410
f1f91315
eeee1e2a
01081415
10ea200c
11042204
08101ae9
100f0ff2
1a0115d8
041104df
1505ffe0
1e1409ef
1b03f0ca
0e16ead9
0b16f7d8
1c01ebe8
14f4e2df
17fbea01
16f1ead5
06f6e3f8
12eefbee
08f90109
11fcf7db
f905f204
f9f8efef
f30f020f
0906f3d1
190b1700
ee180f05
0f0d07fe
f21411ef
e70efb0b
0c2010f2
f81d17f4
f4fefe1c
06e8efd6
00eedee8
07f2f705
0bf3ebf7
1006e6f6
12fce9ce
0409ece3
0c0bf2cc
230df8cb
1b1b09d0
2710fbca
28170bc6
23190ce7
0b170eec
182404df
010d0f03
0204fcf1
13050205
e0080f23
f9fb091c
f8eaff1d
eceff918
e7f51135
e008fb0b
f2f40b09
f3fe06f9
f9100e0a
fcfc2202
fd0b2af9
fc031bfb
041319ec
06261fed
100113de
1a0f02df
1012fdd4
1c1703ea
0e15eccc
1417f4cf
1b01ebde
1b04d3c9
1208e7e5
17f5ebe5
0efbe90b
01ffdfe4
0100f2f2
1bfef8df
f8e5dedb
faf10b18
f6f7eb15
ef010a2c
09e0f0f7
ec00ebff
e0fb3503
0303f3d5
f5fcf309
ec1317f1
021004d8
f60200f5
fdfaf8fb
f1021002
ed0700e4
fcf4f8e7
0af9e10a
1000f5e7
fdfafa1a
0efee4fd
18f6ffcf
10f3f4df
100febd7
250ae8d4
1213f4db
0d0f14e6
101416d2
1b2318d4
1d0f13dd
fc2413f5
f31f16f1
0c1506e8
fa220c0e
f118100a
ea010607
de061402
e1fd131a
ec080119
e1fd0d1a
e6ff0917
f71c1b07
f31618ef
f12727ea
f80f1515
081d1ae9
001c2bf8
03231ad8
fe12fbf4
1e1dfad5
0d1007d2
1f10f2da
1e0cefc9
1a1dedce
180ae1cb
17f9ecd0
27f3dee5
04fce2e0
10fde9e8
08f7e0f4
f8f5fd19
eff3e9cc
fff2f812
e0f0ff28
fbdd041b
01f2f4f5
f8141616
090dfaed
13faffed
f0f91527
f4fdfee0
f00902e4
f11314f5
e5ede819
03140ef0
041901f5
0504f416
f2e9f5f5
17f0e805
09fae9f4
21f4eec9
1106fbf2
2304f1c8
10f7e6ec
1cfef2e7
0f0bf6e4
1e0aefd4
112710e9
040c04cf
0816fcda
031b10d4
eb251df0
f6171be1
092023fe
f01020f4
de1016ed
021111f6
fb0713f8
e81912f8
e11e19eb
e318080f
eb1312ed
f41408e4
fe1528f2
f01721e0
060418e2
001815ea
f31219e0
0e14ffea
0c2407eb
111601e5
1805f6d3
1206f6cb
13f8f3d8
0c0eecf8
0ef8e603
03f9dbeb
01efe8e8
01f1e5fd
0f0503df
03f8f708
f604000e
050300e1
f41712e5
ecfcfef5
e31f0ff5
fdff0624
f60afd00
03fefdd0
ff081b1f
e51b1a00
04180d04
e9051131
fd09ece6
f213fbdf
07effdef
f5100cfe
ffead4d4
11f4f017
11e7f028
0df6ec09
1cdeecfb
0bedecf4
10f1e0ff
0f07ebe7
1703fcdf
0d0410e1
0a09f1cd
0513f8da
190f08d1
fe1401d2
f51f12e0
f41e1cdf
f02517e9
ee2c1bec
f61715ed
ea2322e4
d62721e8
e71616ee
f1181acf
f4241cda
e5371ae8
eb2607d8
ed0919e8
09221ae2
ee130ce0
071a02d2
1010ffe4
050ef5c5
160e01bb
0801f3e0
1b04e0e8
0e05f7de
04fcf3ef
17ebe4e4
1aeae4da
00f705f9
0af1fb03
faf4ecea
03f3e4eb
e5e9e9eb
0dece914
e9f2f318
f9f9ebe6
edfdf806
d50b1ff6
fb081519
f917130c
e9f0ef02
f90c1b1a
ddf00932
f6161314
f422ffe1
0ee3d8dc
e80b110d
07f2fbe1
f90cfcf5
e9f7110b
0ff4e9dd
0fefed0d
1befeaeb
0ff3e0eb
08e3ecda
15f4eae6
f5edfb06
0405f627
120afa0d
100ef2cb
0d06f1bc
131914d3
0b09fbc4
f10d0dd1
ee2807ed
f83223d7
f42e1ed6
f3311bc7
f42f13d4
e83315e1
f5281cd8
f82508e4
ec2f12d9
e02e1ac5
ed2213dd
eb2404e4
ef1d18ce
ff1217dc
f91afbcc
030d08df
f906f4e1
1222feca
0e12f2f9
02fdfbdc
1907ffe1
05f0f3d8
1becccdf
090302f0
09f5ef05
0607ff06
faeeeaeb
f8fc09eb
fbefe807
00f00a20
ef04f60f
ef03ff0a
ed11161c
f604e819
001810fa
11170bd3
e512111e
eb0ae3e7
f4f80316
e4f11f12
ea2a06dc
ed1e180d
ed020b1a
f8f32327
08e0f4f6
f40a010e
ee09f832
fe08fe0f
12edf9c8
04ecdb13
fedacfed
f20402f6
0003fc04
fbf8f4f2
101006f4
121301db
100503d3
002407c9
05270dcf
eb1d14d5
0f220ebb
011a17dd
de3220f0
df1c23e0
e11e07df
ec2a1edf
dd2618d4
ec240be2
f62012d0
de2b0ce6
f710fcc4
e82310f4
fa2418de
02160ee4
0a1e00de
f11bfdbe
f41804d8
fd2000be
120cf5e2
0d0504d7
0004f7f3
fe0104f5
1a12f7c6
0c06fae8
f8ef0321
1ce5d705
faf00629
f807f701
ecf6f50d
f20505e8
ea101b17
e0fd1a14
de170902
0f0a05ec
db2312e1
fe06fbf7
d4100922
e6fd1d13
05ee08fd
181a08dc
091103ee
01fef113
fa1f0bed
ec1d12fb
0216f3ed
0ffa0405
14fae1d7
faf70b15
00fbf401
0b02f728
e9ebfb12
0907f6d0
f6ecf31d
f1ff0812
fe060011
021009d3
f21802e8
010efddb
fe1913d0
12180abf
ef17fbcb
e52710e8
f61d17cd
f02d0dd3
de2619e1
dd1e1dcf
f01b16d5
e91e0bec
ef0a10e3
e1231fee
f41a1005
e81206d2
f90ef7c3
eb220c04
f80b06f1
001c01ed
fc02f706
111512fe
0909fce3
fd0cfee1
0d1303e8
0a04080a
fc01f4d6
f303effe
e00d07fa
0fdfe6e5
eaf5f40e
e206061b
ef0e18eb
ff060703
e50b1101
dff61210
f0fe01fa
e8fff629
06170625
030403fa
ea0c1110
de151c24
fd0e0022
ff03f2ee
e6020112
e2f7f809
ff0d0e05
f40b001c
0c06f6e8
ef1f2920
24fee8ba
f4f704f6
05e8e3ef
02050d0d
09faebf5
10f605ec
09ee05e8
05e6ed03
eb050802
001cfee5
f81a0907
eb2529ea
ea190600
ef21fdcf
eb2320ea
001011c7
e12b2adc
f22a22ed
f61dfdd8
e22a15de
fd2315e7
e42007c8
eb1123d6
f60f12ef
e6130ddf
fe0704ff
e60f0dea
e6131415
001421e2
ed0b11dc
f0070a0b
fc1410cf
0418140e
f20610fa
ff1a0fe8
f62102c7
160a010b
f5f6eced
e2fc042a
08ece0e9
0ef4f80f
f9290bed
ea041314
e4e70b0d
e0071d29
13170203
f7fff2e4
fc1211eb
f4111f28
ec160bf5
f71efce6
f3ff05fb
040804f3
f5fe00cb
ee15121b
e8ecff12
f9191af6
e60eee00
dc07091b
f206fce7
edfef609
0b09f1f1
d6edff07
0c0604f3
effbffe2
ebff0e28
03fdfd16
02f700f5
0308f519
e80f1010
e6f40c1d
010309f6
e71206f1
fa191bf0
f11cf6ce
051807de
f02b14d5
ef2d28f1
fd1a06c1
ea261b04
eb140bf0
f91a1ee4
031312e5
e81116da
ea1b12f0
f31912e5
ef051201
0f0309e8
e522120a
ea1403de
000d02d3
e72b16db
ef1706fd
fa07fcd7
080804f9
e0161a14
ede3e610
0af6efe4
ed050009
fbf2fb1e
02f3ef0a
0400eaeb
04fcfde4
ee0e1112
fdfdf606
db052612
ef0400e9
ed2219f4
e0190b10
e5060411
e00305fb
2108f5de
0e09eef7
06190b07
d30f2724
f4fb0f00
f8080d36
e61607d8
e50418e8
f7eefdd9
f80a100f
f703f6e0
0b0206f6
f40af604
0beddb20
f7fef5fb
ea020de9
f70f05dd
01fcf1eb
040808ea
ee06fff2
d7eeda18
f61507e7
fd160fe0
ee08f1ff
f81b10d4
031813cb
fd0d01df
e72e1cfa
f20d1adf
f61518f1
eb232304
000310ee
0916fdc8
ed0b11f9
e2091a01
e91705f8
fa080cff
f3fe0aec
0400f4d7
13fdfcde
ff0f11f4
1603f4e9
f20e0fed
ef111a01
ed061923
fb0cf4d0
faf9f318
f114f0e1
e9f40506
faf7ffee
09000914
09fff1ec
f4020c09
ed0507fc
fffff502
0bf1dbd0
f3ff1a1c
f21e13ef
e2132615
d6042f3c
fef2f611
e7160a1f
eb141108
e50efefd
040f1425
e4090910
09fdfa0b
e70b0a0d
de140ce6
e4ff1324
faf517ec
fcfaeff8
1dffece4
eb1f171e
10f9efda
f60008ec
0ef8f4f6
f30bff05
effefb11
fe0d1cef
07f9ebf1
fb0a05de
0efbfdd8
f408f5dc
e5fffbf1
e9ff0310
f90d08e6
fe22f5c8
ff0e0105
f4180def
f30415fd
0207eedb
ea190d05
e7fff0f0
12f8f7e2
dafa09f1
e50200fb
e4010e24
d7def9f3
0305fce9
e41f0bde
f80cfd0f
f10df0d0
e7030d21
f5060c0f
072315e4
010df9e0
e3110cfd
08060320
eb010a08
e5150719
f5120417
f60f1c25
eb0cf815
18e4dce4
e71505fb
08f7e3d5
0d1d0a1a
f90c0df5
f919f9e1
f11a0002
f0fb1f0f
0a0304dc
f41607fd
02fbf7e2
f901150f
fc080b12
ef02f9eb
e20510fb
ed080517
24e6f4e3
f3fffc08
fd00f4d0
f6030d10
fef2decd
010c1614
e5070bf0
ec161015
0beef012
fcfffb0f
f2edfc0f
f9f4f4e0
eceaedee
f603f2fb
01f3e1e9
dde7ef36
00ece9fc
f402f7d3
dff30c01
e909f3fb
03fdf6d7
e81200f5
f5f3fdec
e9f3f904
fafae9fd
f8ece7e3
07f80fe0
07e91905
ffe6fa0d
eee9fde2
07faecea
e8162c0b
e2130cf8
fa07f806
f81c0a0e
ee1e211d
d8ee0227
040b0115
f90df23c
ff2011f4
f4e3effe
f50f1002
03211c25
ec1d1208
19efecdf
f01e00f0
ed1d0707
faf1f7f6
f1091a16
0107fd02
e61f173d
f71f0df1
f1fffb0a
fbff09d5
0d0706fe
ed16f7e7
e9131613
e9fa06f0
e90709ee
120f02f4
f0051109
e81afc26
f4f50623
03ede0e9
e60c02dd
f2fbfbf0
fc0d18ed
e6f6f0f9
e90312fb
2d0704da
dd03f610
15eff2e2
02e9f205
e6e6e2fc
ff05eefa
f801f804
03060512
fbfcf2ec
fee4e6f4
01f2df03
01f901f7
f5f8f8e0
f0f8fb02
06dfe803
f1e4ef01
e000000e
dcff0e13
e0e6eef7
f2f20cf7
eeeae81d
010702fa
e103fefe
02fd07f9
0cfe03e0
f3f5fd2d
1103000d
ef00fffd
f3091c0e
eefe02d4
e0211f39
06011307
0bfaf107
f1071409
ee0c0a11
04f503e9
f4110cfe
e71b2121
f90e070b
f81407e9
defd34f7
19f5ee0f
fee2ead4
f8f5f7f9
0b11150f
fb052401
05dde0e3
12f2effe
e5ef1fe2
f9fce4f0
ecdce9e8
05eef6f9
03e8f3e9
fafb2bf3
f7dee6dd
19d8d4ef
cde41cd9
f6ecefee
eef1f2f4
06eafa06
fbee0afa
eed8ede2
e20213fd
d20e1be0
eff802f9
ededfcdc
03c9d9d5
fb0203fd
de060ded
ee0316fa
f720241e
fe04f90b
e30d14fd
08fcf4fd
fce915f1
e4d50cd9
edf510eb
05e4f3e1
05faf7f6
02ed08e4
fae7ebef
07e0c9ed
fe08f9f6
02f0f2e0
fbf203ed
ff242415
f6ee03f5
f0f4faf0
f7dcf6ea
f3fcf6e7
fefd00f1
f2ecfbe5
0aded7e5
e4f4f7dc
19e6d1f8
e6fe15f3
fffde7f5
0c151711
f5e80df0
0815282b
f0f00d04
f71217fb
01d6f6c4
00f4f407
fd00fef8
060b2c0a
fcf1ff01
edf628f1
f4f915f6
20120517
f3f90ef5
0a01fff4
f40f2cf9
0c0e0f09
fa22270e
0c01ed08
04edeee6
fe000101
f4141910
ebf506f9
010b0d10
fa0609f2
dbe716d1
e3f911f5
dfdbefd6
f2010808
eefefaf5
0adccff1
f1f5fbdd
eafcfdf3
e7e920d4
defa23f6
05010c0a
eef216e8
f6ecfaef
df0130f1
f6d8ebe2
f70212e8
f9ec06e8
ebf2fafb
fcf416f1
f8f01bed
eff90707
fcd5e2de
f1ddfae8
1cedcaeb
f7f5ecea
0206060d
f50c0dfe
03dbe8e6
06e1d6e7
e20325f1
edf4edfc
00d8e9e9
020016f7
07fefb08
0d04fc0c
060d2103
f6111e10
f3182308
01f2f6eb
e7f4fae5
0cfbf8fb
00fcf6fc
0cf000fd
0aec040f
0e11111c
11dbeaf9
eef510fd
f4fb0cfa
e2f4f0db
fefa06e6
eb1126f1
dfeb1ddb
e9fe13f8
f9f1f502
eadcfbd7
e2f006e4
ebe2ebd9
fef1edec
f708fffc
091a0816
0af0e4e5
f2050000
e5e415e1
eff201ed
f0f4f9f3
ece5f7dc
e50d2aef
f1fcfafc
e6fb11f2
e60529f2
f5f901f1
03fe0e06
f41b2014
f4f5f60b
ede4f7e3
0eff1112
e9f407f3
dee720da
f8f308f6
f2d8ecdc
fcfffcfa
eb0b00f3
eef4f9eb
f9f403ea
02081205
f8e2fef4
fce1fada
faeb01df
fcf0feef
f6e9eae2
e3eb21e0
0affe60a
f9f81301
1000f10c
f2def8eb
24e3dff6
f6f90de9
010504f5
f1061afa
f7e8eafc
f9faf0e2
faf61103
ec0112f1
e2ff15f6
ec0319fd
17eff300
e6f608e9
02f1f7ea
20e4e7f3
f0ecedde
ecf004f2
0febdf07
ff02f8eb
0ddfe8f4
d8e811dd
e8f10bdc
f0f2f6eb
f6e200ec
fef6f2e7
f4f0e4e9
00e9f8e3
eff1e9e0
e4eb22f0
eee4edda
00e1f4fd
1208f926
0d07e421
eb061000
080912fc
f9f90600
07e9e9f5
f9060cfe
f8eafb05
ed070a01
0aecf8fd
f0e1f1f9
1f1b021e
08eaf2f0
fbeb15f2
d7fa29e4
f5e7eed7
05d5d9d8
f3e0fedf
f302eff2
e1e41de5
dc0e31f1
f9eaf6da
e60f3f0a
f0050cfa
f1dff9e4
ec021408
fbf3faf9
e5e71bee
fa0108f3
07daece1
09efddea
0ff2f8f8
080e1620
07f7e6ff
f50218f1
f5030cf7
ff0c0a00
f0f9feeb
e8ec01e8
02f3f7fc
eae628f5
08100a0f
0ff1f7f5
1cf8dd0a
fde3f6d9
e9f91af3
06e9fafb
f7dde4dc
f0f1fcf8
03cfdfe6
e7f309f2
ddeb28e2
ecfe38f2
f6eff7e6
ed0113f9
16f7ecfb
10f3f205
07e7d704
fafefb05
17e8dc00
1808f016
0ce0e5e5
0ee8de07
07e3eff6
0dd9e4ea
05ecee03
13fdf500
f4fafe02
18f1d5fa
06faeefe
1df2e4fc
07effff2
0bf2f6f1
dcf405e9
f3f409e8
e4fb30e2
f00419fb
f1ea0edd
fbeef0e4
dbe71eed
09e0efe3
02dedfec
fde2ebe2
f4dfdbe9
11e4eaea
1d05e00c
f4e7e0e4
facffad7
e40416f1
06f70902
13d9d1f0
f5fc1418
20e2ebfc
de0825fc
f0ddd9d7
25e9dcf8
0ff4e400
f6110103
d2062de6
ef080104
17e5e2f6
ffe906e8
0cfbf207
ec1c2f18
